{
    "<s>": 0,
    "<pad>": 1,
    "</s>": 2,
    "<unk>": 3,
    "<mask>": 4,
    "!": 5,
    "\"": 6,
    "#": 7,
    "$": 8,
    "%": 9,
    "&": 10,
    "'": 11,
    "(": 12,
    ")": 13,
    "*": 14,
    "+": 15,
    ",": 16,
    "-": 17,
    ".": 18,
    "/": 19,
    "0": 20,
    "1": 21,
    "2": 22,
    "3": 23,
    "4": 24,
    "5": 25,
    "6": 26,
    "7": 27,
    "8": 28,
    "9": 29,
    ":": 30,
    ";": 31,
    "<": 32,
    "=": 33,
    ">": 34,
    "?": 35,
    "@": 36,
    "A": 37,
    "B": 38,
    "C": 39,
    "D": 40,
    "E": 41,
    "F": 42,
    "G": 43,
    "H": 44,
    "I": 45,
    "J": 46,
    "K": 47,
    "L": 48,
    "M": 49,
    "N": 50,
    "O": 51,
    "P": 52,
    "Q": 53,
    "R": 54,
    "S": 55,
    "T": 56,
    "U": 57,
    "V": 58,
    "W": 59,
    "X": 60,
    "Y": 61,
    "Z": 62,
    "[": 63,
    "\\": 64,
    "]": 65,
    "^": 66,
    "_": 67,
    "`": 68,
    "a": 69,
    "b": 70,
    "c": 71,
    "d": 72,
    "e": 73,
    "f": 74,
    "g": 75,
    "h": 76,
    "i": 77,
    "j": 78,
    "k": 79,
    "l": 80,
    "m": 81,
    "n": 82,
    "o": 83,
    "p": 84,
    "q": 85,
    "r": 86,
    "s": 87,
    "t": 88,
    "u": 89,
    "v": 90,
    "w": 91,
    "x": 92,
    "y": 93,
    "z": 94,
    "{": 95,
    "|": 96,
    "}": 97,
    "~": 98,
    "¡": 99,
    "¢": 100,
    "£": 101,
    "¤": 102,
    "¥": 103,
    "¦": 104,
    "§": 105,
    "¨": 106,
    "©": 107,
    "ª": 108,
    "«": 109,
    "¬": 110,
    "®": 111,
    "¯": 112,
    "°": 113,
    "±": 114,
    "²": 115,
    "³": 116,
    "´": 117,
    "µ": 118,
    "¶": 119,
    "·": 120,
    "¸": 121,
    "¹": 122,
    "º": 123,
    "»": 124,
    "¼": 125,
    "½": 126,
    "¾": 127,
    "¿": 128,
    "À": 129,
    "Á": 130,
    "Â": 131,
    "Ã": 132,
    "Ä": 133,
    "Å": 134,
    "Æ": 135,
    "Ç": 136,
    "È": 137,
    "É": 138,
    "Ê": 139,
    "Ë": 140,
    "Ì": 141,
    "Í": 142,
    "Î": 143,
    "Ï": 144,
    "Ð": 145,
    "Ñ": 146,
    "Ò": 147,
    "Ó": 148,
    "Ô": 149,
    "Õ": 150,
    "Ö": 151,
    "×": 152,
    "Ø": 153,
    "Ù": 154,
    "Ú": 155,
    "Û": 156,
    "Ü": 157,
    "Ý": 158,
    "Þ": 159,
    "ß": 160,
    "à": 161,
    "á": 162,
    "â": 163,
    "ã": 164,
    "ä": 165,
    "å": 166,
    "æ": 167,
    "ç": 168,
    "è": 169,
    "é": 170,
    "ê": 171,
    "ë": 172,
    "ì": 173,
    "í": 174,
    "î": 175,
    "ï": 176,
    "ð": 177,
    "ñ": 178,
    "ò": 179,
    "ó": 180,
    "ô": 181,
    "õ": 182,
    "ö": 183,
    "÷": 184,
    "ø": 185,
    "ù": 186,
    "ú": 187,
    "û": 188,
    "ü": 189,
    "ý": 190,
    "þ": 191,
    "ÿ": 192,
    "Ā": 193,
    "ā": 194,
    "Ă": 195,
    "ă": 196,
    "Ą": 197,
    "ą": 198,
    "Ć": 199,
    "ć": 200,
    "Ĉ": 201,
    "ĉ": 202,
    "Ċ": 203,
    "ċ": 204,
    "Č": 205,
    "č": 206,
    "Ď": 207,
    "ď": 208,
    "Đ": 209,
    "đ": 210,
    "Ē": 211,
    "ē": 212,
    "Ĕ": 213,
    "ĕ": 214,
    "Ė": 215,
    "ė": 216,
    "Ę": 217,
    "ę": 218,
    "Ě": 219,
    "ě": 220,
    "Ĝ": 221,
    "ĝ": 222,
    "Ğ": 223,
    "ğ": 224,
    "Ġ": 225,
    "ġ": 226,
    "Ģ": 227,
    "ģ": 228,
    "Ĥ": 229,
    "ĥ": 230,
    "Ħ": 231,
    "ħ": 232,
    "Ĩ": 233,
    "ĩ": 234,
    "Ī": 235,
    "ī": 236,
    "Ĭ": 237,
    "ĭ": 238,
    "Į": 239,
    "į": 240,
    "İ": 241,
    "ı": 242,
    "Ĳ": 243,
    "ĳ": 244,
    "Ĵ": 245,
    "ĵ": 246,
    "Ķ": 247,
    "ķ": 248,
    "ĸ": 249,
    "Ĺ": 250,
    "ĺ": 251,
    "Ļ": 252,
    "ļ": 253,
    "Ľ": 254,
    "ľ": 255,
    "Ŀ": 256,
    "ŀ": 257,
    "Ł": 258,
    "ł": 259,
    "Ń": 260,
    "Ġe": 261,
    "qu": 262,
    "um": 263,
    "er": 264,
    "Ġa": 265,
    "Ġs": 266,
    "it": 267,
    "us": 268,
    "in": 269,
    "Ġqu": 270,
    "is": 271,
    "Ġp": 272,
    "at": 273,
    "nt": 274,
    "am": 275,
    "on": 276,
    "Ġc": 277,
    "Ġn": 278,
    "ae": 279,
    "st": 280,
    "Ġd": 281,
    "em": 282,
    "Ġm": 283,
    "or": 284,
    "Ġin": 285,
    "ic": 286,
    "ur": 287,
    "Ġv": 288,
    "Ġt": 289,
    "Ġet": 290,
    "ut": 291,
    "Ġi": 292,
    "re": 293,
    "Ġf": 294,
    "li": 295,
    "en": 296,
    "Ġest": 297,
    "om": 298,
    "es": 299,
    "im": 300,
    "Ġh": 301,
    "unt": 302,
    "od": 303,
    "et": 304,
    "ar": 305,
    "an": 306,
    "id": 307,
    "os": 308,
    "ec": 309,
    "ul": 310,
    "ent": 311,
    "Ġnon": 312,
    "Ġpr": 313,
    "ia": 314,
    "ib": 315,
    "ol": 316,
    "un": 317,
    "que": 318,
    "čĊ": 319,
    "Ġad": 320,
    "ed": 321,
    "oc": 322,
    "Ġre": 323,
    "Ġl": 324,
    "se": 325,
    "ud": 326,
    "Ġquod": 327,
    "ac": 328,
    "ab": 329,
    "Ġut": 330,
    "el": 331,
    "ius": 332,
    "as": 333,
    "iam": 334,
    "ion": 335,
    "Ġes": 336,
    "Ġquae": 337,
    "Ġsunt": 338,
    "ere": 339,
    "il": 340,
    "ot": 341,
    "op": 342,
    "Ġcum": 343,
    "ant": 344,
    "Ġde": 345,
    "Ġsu": 346,
    "al": 347,
    "ibus": 348,
    "Ġcon": 349,
    "Ġex": 350,
    "Ġquam": 351,
    "ĠE": 352,
    "ĠA": 353,
    "ĠI": 354,
    "io": 355,
    "Ġan": 356,
    "ĠS": 357,
    "ag": 358,
    "ĠC": 359,
    "omn": 360,
    "Ġesse": 361,
    "Ġomn": 362,
    "Ġdi": 363,
    "Ġme": 364,
    "ĠD": 365,
    "Ġqui": 366,
    "Ġil": 367,
    "Ġdic": 368,
    "est": 369,
    "ih": 370,
    "end": 371,
    "Ġali": 372,
    "ta": 373,
    "iae": 374,
    "itat": 375,
    "Qu": 376,
    "ip": 377,
    "Ġper": 378,
    "orum": 379,
    "Ġaut": 380,
    "Ġ1": 381,
    "ter": 382,
    "Ġfac": 383,
    "Ġprae": 384,
    "Ġill": 385,
    "itur": 386,
    "Ġb": 387,
    "rat": 388,
    "ist": 389,
    "ra": 390,
    "ium": 391,
    "atur": 392,
    "ob": 393,
    "ect": 394,
    "ili": 395,
    "ĠP": 396,
    "Ġsi": 397,
    "Ġsed": 398,
    "per": 399,
    "omin": 400,
    "Ġg": 401,
    "no": 402,
    "Ġen": 403,
    "Ġco": 404,
    "ĠQu": 405,
    "Ġip": 406,
    "quam": 407,
    "ir": 408,
    "ens": 409,
    "Ġhab": 410,
    "Ġtu": 411,
    "Ġenim": 412,
    "Ġpos": 413,
    "ĠN": 414,
    "uit": 415,
    "cc": 416,
    "eg": 417,
    "ost": 418,
    "Ġsc": 419,
    "iv": 420,
    "Ġeius": 421,
    "uc": 422,
    "Ġquid": 423,
    "Ġhoc": 424,
    "Ġpot": 425,
    "arum": 426,
    "gn": 427,
    "aec": 428,
    "und": 429,
    "eb": 430,
    "ĠM": 431,
    "iss": 432,
    "Ġcom": 433,
    "Ġap": 434,
    "are": 435,
    "Ġquo": 436,
    "ort": 437,
    "Ġ(": 438,
    "Ġver": 439,
    "Ġetiam": 440,
    "Ġse": 441,
    "pt": 442,
    "Ġips": 443,
    "and": 444,
    "ina": 445,
    "Ġposs": 446,
    "Ġautem": 447,
    "Ġab": 448,
    "ihi": 449,
    "Ġvel": 450,
    "Ġvid": 451,
    "ita": 452,
    "Ġu": 453,
    "Ġ2": 454,
    "fic": 455,
    "Ġmihi": 456,
    "go": 457,
    "imus": 458,
    "Ġr": 459,
    "Ġop": 460,
    "Ġsit": 461,
    "Ġid": 462,
    "Ġer": 463,
    "av": 464,
    "ĠL": 465,
    "erunt": 466,
    "ell": 467,
    "ionem": 468,
    "ĠH": 469,
    "ct": 470,
    "Ġne": 471,
    "Ġca": 472,
    "Ġam": 473,
    "ult": 474,
    "ĠDe": 475,
    "ĠR": 476,
    "Ġanno": 477,
    "emp": 478,
    "Ġpag": 479,
    "lic": 480,
    "ĠF": 481,
    "Ġpro": 482,
    "Ġat": 483,
    "ore": 484,
    "Ġpar": 485,
    "ihil": 486,
    "Ġte": 487,
    "ione": 488,
    "Ġpagina": 489,
    "Ġinc": 490,
    "Ġaliqu": 491,
    "Ġcu": 492,
    "isc": 493,
    "erit": 494,
    "Ġapud": 495,
    "Ġvol": 496,
    "ĠT": 497,
    "etur": 498,
    "Ġcons": 499,
    "Ġim": 500,
    "atus": 501,
    "Ġpl": 502,
    "Ġnec": 503,
    "Ġqua": 504,
    "Ġnihil": 505,
    "Ġquia": 506,
    "Ġea": 507,
    "lib": 508,
    "Ġtam": 509,
    "Ġeum": 510,
    "ibi": 511,
    "ior": 512,
    "Ġmag": 513,
    "ĠV": 514,
    "ert": 515,
    "unc": 516,
    "ĠEa": 517,
    "Ġfuit": 518,
    "ari": 519,
    "ess": 520,
    "Ġpotest": 521,
    "Ġma": 522,
    "Ġsol": 523,
    "Ġun": 524,
    "Ġtemp": 525,
    "..": 526,
    "ing": 527,
    "Ġacc": 528,
    "ĠĠ": 529,
    "Ġess": 530,
    "ust": 531,
    "ĠG": 532,
    "erum": 533,
    "Ġint": 534,
    "Ġscr": 535,
    "Ġprop": 536,
    "ĠB": 537,
    "ub": 538,
    "Ġcont": 539,
    "Ġcomm": 540,
    "Ġmod": 541,
    "Ġeo": 542,
    "âĢ": 543,
    "ov": 544,
    "Ġsum": 545,
    "Ġatque": 546,
    "ig": 547,
    "Ġhaec": 548,
    "ine": 549,
    "ull": 550,
    "obis": 551,
    "Ġfili": 552,
    "Ġinter": 553,
    "Ġfu": 554,
    "Ġor": 555,
    "Ġlib": 556,
    "erat": 557,
    "tum": 558,
    "Ġres": 559,
    "orem": 560,
    "Ġhomin": 561,
    "Ġsec": 562,
    "bi": 563,
    "ep": 564,
    "Ġsic": 565,
    "ĠEt": 566,
    "inc": 567,
    "Ġdix": 568,
    "Ġpat": 569,
    "Ġbon": 570,
    "fect": 571,
    "00": 572,
    "lig": 573,
    "oqu": 574,
    "eri": 575,
    "int": 576,
    "Ġreg": 577,
    "atum": 578,
    "ro": 579,
    "Ġst": 580,
    "Ġanim": 581,
    "ran": 582,
    "de": 583,
    "ri": 584,
    "rum": 585,
    "Ġita": 586,
    "Ġcre": 587,
    "Ġmin": 588,
    "ate": 589,
    "Ġar": 590,
    "les": 591,
    "Ġtibi": 592,
    "Ġomnia": 593,
    "ient": 594,
    "Ġcor": 595,
    "uli": 596,
    "Ġnost": 597,
    "upt": 598,
    "ata": 599,
    "Ġleg": 600,
    "undum": 601,
    "ven": 602,
    "itum": 603,
    "eris": 604,
    "Ġfec": 605,
    "Ġneque": 606,
    "untur": 607,
    "atis": 608,
    "isi": 609,
    "Ġvir": 610,
    "Ġven": 611,
    "issim": 612,
    "ers": 613,
    "ap": 614,
    "abul": 615,
    "Ġquidem": 616,
    "Ġant": 617,
    "Ġloc": 618,
    "Ġerat": 619,
    "Ġ,": 620,
    "iter": 621,
    "ator": 622,
    "Ġloqu": 623,
    "Ġter": 624,
    "ire": 625,
    "Ġ19": 626,
    "ĠO": 627,
    "Ġdol": 628,
    "Ġsp": 629,
    "ĠIn": 630,
    "ccles": 631,
    "Ġquis": 632,
    "Ġal": 633,
    "antur": 634,
    "Ġus": 635,
    "Ġincol": 636,
    "Ġego": 637,
    "Ġnum": 638,
    "eat": 639,
    "Ġoc": 640,
    "Ġser": 641,
    "Ġsub": 642,
    "Ġmult": 643,
    "Ġaud": 644,
    "Ġ3": 645,
    "Ġpost": 646,
    "Ġmort": 647,
    "isti": 648,
    "Ġcaus": 649,
    "ific": 650,
    "Ġ-": 651,
    "Ġob": 652,
    "Ġipsum": 653,
    "endum": 654,
    "Ġprim": 655,
    "Ġman": 656,
    "Ġtamen": 657,
    "le": 658,
    "Ġmodo": 659,
    "Ġomnes": 660,
    "Ġdom": 661,
    "esc": 662,
    "Ġscrip": 663,
    "ii": 664,
    "urb": 665,
    "eo": 666,
    "ffic": 667,
    "Ġnobis": 668,
    "ĠDomin": 669,
    "Ġimp": 670,
    "Ġquibus": 671,
    "Ġvolupt": 672,
    "Ġincolarum": 673,
    "Ġnos": 674,
    "Ġ\"": 675,
    "itas": 676,
    "ad": 677,
    "Ġann": 678,
    "ero": 679,
    "Ġmagn": 680,
    "ĠU": 681,
    "entia": 682,
    "Ġcuius": 683,
    "eret": 684,
    "Ġdu": 685,
    "amus": 686,
    "Ġsim": 687,
    "isse": 688,
    "Ġesset": 689,
    "Ġo": 690,
    "Ġnisi": 691,
    "ĠRom": 692,
    "ris": 693,
    "Ġsecundum": 694,
    "udic": 695,
    "alis": 696,
    "Ġnatur": 697,
    "Ġcommun": 698,
    "xim": 699,
    "ionis": 700,
    "iat": 701,
    "res": 702,
    "iunt": 703,
    "Ġaliquid": 704,
    "Ġquem": 705,
    "Ġdeb": 706,
    "ĠSed": 707,
    "itus": 708,
    "pon": 709,
    "Ġgen": 710,
    "dam": 711,
    "Ġag": 712,
    "aud": 713,
    "ĠAn": 714,
    "dic": 715,
    "Ġsem": 716,
    "Ġvero": 717,
    "Ġnull": 718,
    "ati": 719,
    "Ġac": 720,
    "iis": 721,
    "Ġrat": 722,
    "itate": 723,
    "Ġiam": 724,
    "Ġpart": 725,
    "Ġpraes": 726,
    "Ġergo": 727,
    "itatem": 728,
    "avit": 729,
    "cip": 730,
    "tus": 731,
    "Ġvit": 732,
    "Ġvoc": 733,
    "ch": 734,
    "Ġput": 735,
    "Ġurb": 736,
    "Ġist": 737,
    "Ġeam": 738,
    "ie": 739,
    "gitur": 740,
    "ff": 741,
    "rae": 742,
    "Ġpec": 743,
    "Ġante": 744,
    "oniam": 745,
    "Ġille": 746,
    "ile": 747,
    "Ġtr": 748,
    "Ġcog": 749,
    "Ġnunc": 750,
    "Ġtabul": 751,
    "ĠDeus": 752,
    "entur": 753,
    "orm": 754,
    "Ġquas": 755,
    "Ġrerum": 756,
    "lius": 757,
    "ias": 758,
    "Ġcur": 759,
    "Ġhabet": 760,
    "ne": 761,
    "Ġsuper": 762,
    "Ġrem": 763,
    "Ġsan": 764,
    "pe": 765,
    "Ġcap": 766,
    "si": 767,
    "ui": 768,
    "icae": 769,
    "ux": 770,
    "ern": 771,
    "atio": 772,
    "ando": 773,
    "Ġhis": 774,
    "ebat": 775,
    "Ġipse": 776,
    "Ġexp": 777,
    "\"\\": 778,
    "Ġmal": 779,
    "Ġiudic": 780,
    "antum": 781,
    "iones": 782,
    "uius": 783,
    "emus": 784,
    "Ġei": 785,
    "Ġciv": 786,
    "ĠĠĠĠ": 787,
    "Ġamic": 788,
    "\"\\\"\\": 789,
    "stit": 790,
    "atem": 791,
    "Ġverb": 792,
    "endi": 793,
    "ĠNon": 794,
    "Ġ[": 795,
    "Ġdiv": 796,
    "Ġigitur": 797,
    "Ġdisc": 798,
    "Ġiur": 799,
    "dem": 800,
    "Ġeccles": 801,
    "erc": 802,
    "Ġrep": 803,
    "Ġapp": 804,
    "Ġnomin": 805,
    "ali": 806,
    "Ġsicut": 807,
    "itud": 808,
    "ĠâĢ": 809,
    "ĠÂ": 810,
    "Ġdixit": 811,
    "ene": 812,
    "og": 813,
    "Ġ18": 814,
    "tor": 815,
    "Ġ4": 816,
    "ulum": 817,
    "ug": 818,
    "ationem": 819,
    "ulo": 820,
    "Ġcui": 821,
    "ranc": 822,
    "Ġdec": 823,
    ".[": 824,
    "Ġmaxim": 825,
    "Ġded": 826,
    "Ġas": 827,
    "Ġpop": 828,
    "dit": 829,
    "sequ": 830,
    "Ġsua": 831,
    "Ġmortu": 832,
    "Ġillud": 833,
    "01": 834,
    "itatis": 835,
    "ept": 836,
    "Ã¦": 837,
    "Ġomnibus": 838,
    "Ġcomp": 839,
    "Ġquoniam": 840,
    "Ġilla": 841,
    "Ġdes": 842,
    "oris": 843,
    "Ġis": 844,
    "sum": 845,
    "anno": 846,
    "itt": 847,
    "ingu": 848,
    "ici": 849,
    "Ġmea": 850,
    "Ġintell": 851,
    "Ġtot": 852,
    "Ġquoque": 853,
    "Ġeorum": 854,
    "Ġpu": 855,
    "inem": 856,
    "Ġ200": 857,
    "ram": 858,
    "ublic": 859,
    "rim": 860,
    "ĠQuid": 861,
    "Ġcogn": 862,
    "di": 863,
    "icum": 864,
    "entes": 865,
    "Ġmagis": 866,
    "Ġdicitur": 867,
    "Ġtempore": 868,
    "Ġ:": 869,
    "era": 870,
    "ĠFranc": 871,
    "Ġsent": 872,
    "ont": 873,
    "Ġserv": 874,
    "Ġconc": 875,
    "ica": 876,
    "Ġeos": 877,
    "Ġhic": 878,
    "Ġdie": 879,
    "Ġomnis": 880,
    "itatus": 881,
    "Ġfort": 882,
    "isset": 883,
    "Ġrec": 884,
    "Ġpossunt": 885,
    "Ġocc": 886,
    "irc": 887,
    "entum": 888,
    "osc": 889,
    "Ġmol": 890,
    "Ġcausa": 891,
    "Ġlit": 892,
    "Ġgrat": 893,
    "Ġscrib": 894,
    "quid": 895,
    "II": 896,
    "Ġsemper": 897,
    "ex": 898,
    "Ġact": 899,
    "Ġusque": 900,
    "eli": 901,
    "ĠRoman": 902,
    "Ġcorp": 903,
    "Ġconf": 904,
    "Ġsine": 905,
    "Ġfacere": 906,
    "rem": 907,
    "ĠQuod": 908,
    "Ġsint": 909,
    "Ġtua": 910,
    "Ġdel": 911,
    "Ġillum": 912,
    "omen": 913,
    "Ġvos": 914,
    "iet": 915,
    "ĠCh": 916,
    "ĠÐ": 917,
    "Ġpublic": 918,
    "Ġinv": 919,
    "ios": 920,
    "raec": 921,
    "tin": 922,
    "Ġiust": 923,
    "Ġmaior": 924,
    "Ġel": 925,
    "bus": 926,
    "Ġviv": 927,
    "ret": 928,
    "Ġinf": 929,
    "quit": 930,
    "ĠSi": 931,
    "Ġfid": 932,
    "Ġnot": 933,
    "Ġcl": 934,
    "icus": 935,
    "Ġsuo": 936,
    "Ġnumquam": 937,
    "he": 938,
    "Ġpossit": 939,
    "ores": 940,
    "Ġsequ": 941,
    "umque": 942,
    "Ġpraec": 943,
    "Ġquos": 944,
    "Ġfrat": 945,
    "Ġeis": 946,
    "Ġipsa": 947,
    "Ġnam": 948,
    "Ġlingu": 949,
    "ilis": 950,
    "Ġmortuus": 951,
    "Ġminus": 952,
    "Ġ5": 953,
    "ĠAt": 954,
    "Ġlitter": 955,
    "Ġcar": 956,
    "Ġsign": 957,
    "ĠAm": 958,
    "Ġins": 959,
    "Ġdicit": 960,
    "Ġten": 961,
    "Ġubi": 962,
    "urae": 963,
    "ĠCom": 964,
    "Ġcol": 965,
    "Ġplac": 966,
    "Ġ'": 967,
    "Ġpers": 968,
    "Ġmis": 969,
    "Ġmat": 970,
    "Ġlab": 971,
    "Ġcred": 972,
    "Ġpraeter": 973,
    "Ġsibi": 974,
    "Ġdef": 975,
    "ve": 976,
    "atione": 977,
    "isp": 978,
    "Ġprinc": 979,
    "Ġvobis": 980,
    "Ġsolum": 981,
    "Ġsuam": 982,
    "Ġsae": 983,
    "ĠNam": 984,
    "Ġmor": 985,
    "stant": 986,
    "Ġnov": 987,
    "Ġerit": 988,
    "Ġep": 989,
    "Ġsap": 990,
    "ura": 991,
    "Ġbonum": 992,
    "Ġ201": 993,
    "Ġvide": 994,
    "Ġfecit": 995,
    "Ġopt": 996,
    "Ġdoc": 997,
    "Ġconsequ": 998,
    "ti": 999,
    "lum": 1000,
    "Ġhuius": 1001,
    "Ġcommune": 1002,
    "erm": 1003,
    "vit": 1004,
    "Ġopp": 1005,
    "ula": 1006,
    "inis": 1007,
    "Ġbene": 1008,
    "Ġpraefect": 1009,
    "iens": 1010,
    "sit": 1011,
    "entiam": 1012,
    "Ġprov": 1013,
    "Ġexc": 1014,
    "Ġfi": 1015,
    "to": 1016,
    "Ġvis": 1017,
    "ĠIta": 1018,
    "oed": 1019,
    "up": 1020,
    "anc": 1021,
    "Ġquasi": 1022,
    "ilia": 1023,
    "sus": 1024,
    "...": 1025,
    "icet": 1026,
    "enda": 1027,
    "Ġval": 1028,
    "Ġmolest": 1029,
    "Ġneg": 1030,
    "Ġmeum": 1031,
    "Ġprob": 1032,
    "Ġcirc": 1033,
    "itia": 1034,
    "Ġpa": 1035,
    "entiae": 1036,
    "Ġaliud": 1037,
    "odi": 1038,
    "odo": 1039,
    "Ð°": 1040,
    "Ġnomen": 1041,
    "Ġcae": 1042,
    "Ġinven": 1043,
    "Ġrespon": 1044,
    "Ġdomin": 1045,
    "Ġred": 1046,
    "ĠLat": 1047,
    "ino": 1048,
    "Ġtantum": 1049,
    "ann": 1050,
    "Ġprincip": 1051,
    "Ġvidetur": 1052,
    "Ġcert": 1053,
    "erem": 1054,
    "Ġvest": 1055,
    "andum": 1056,
    "ulta": 1057,
    "Ġmem": 1058,
    "Ġilli": 1059,
    "Ġsumm": 1060,
    "Ġform": 1061,
    "Ġpropter": 1062,
    "Ġfr": 1063,
    "unct": 1064,
    "Ġfug": 1065,
    "Ġpars": 1066,
    "Ġcontra": 1067,
    "Ġ7": 1068,
    "Ġsal": 1069,
    "ĠDominus": 1070,
    "Ð¾": 1071,
    "ĠAr": 1072,
    "Ġj": 1073,
    "lor": 1074,
    "Ġfactum": 1075,
    "Ġalter": 1076,
    "Ġux": 1077,
    "enti": 1078,
    "Ġadh": 1079,
    "ora": 1080,
    "reh": 1081,
    "ini": 1082,
    "10": 1083,
    "Ġnesc": 1084,
    "Ġquaer": 1085,
    "ĠGraec": 1086,
    "xit": 1087,
    "Ġ6": 1088,
    "Ġnulla": 1089,
    "glic": 1090,
    "ulus": 1091,
    "vers": 1092,
    "Ġpecun": 1093,
    "Ġaet": 1094,
    "ue": 1095,
    "Ġduc": 1096,
    "Ġtum": 1097,
    "pic": 1098,
    "oribus": 1099,
    ").": 1100,
    "ima": 1101,
    "aret": 1102,
    "Ġpossum": 1103,
    "aria": 1104,
    "Ġnatura": 1105,
    "Ġmaxime": 1106,
    "ĠIs": 1107,
    "Ġvolunt": 1108,
    "ea": 1109,
    "ill": 1110,
    "ong": 1111,
    "liqu": 1112,
    "ĠDei": 1113,
    "Ġeg": 1114,
    "edit": 1115,
    "ans": 1116,
    "Ġsuum": 1117,
    "Ġquando": 1118,
    "tut": 1119,
    "ato": 1120,
    "Ġimper": 1121,
    "Ġsanct": 1122,
    "Ġmund": 1123,
    "Ġund": 1124,
    "mon": 1125,
    "uta": 1126,
    "entem": 1127,
    "Ġterra": 1128,
    "eretur": 1129,
    "Ġius": 1130,
    "Ġdicere": 1131,
    "Ġtran": 1132,
    "omo": 1133,
    "ass": 1134,
    "itatibus": 1135,
    "Ġpraefecturae": 1136,
    "Ġdilig": 1137,
    "ĠQuae": 1138,
    "12": 1139,
    "ulis": 1140,
    "Ġext": 1141,
    "Ġnecess": 1142,
    "Ġgra": 1143,
    "esse": 1144,
    "Ġillis": 1145,
    "Ġing": 1146,
    "ale": 1147,
    "iscop": 1148,
    "epit": 1149,
    "ĠDeo": 1150,
    "ite": 1151,
    "Ġtest": 1152,
    "fer": 1153,
    "ectus": 1154,
    "Ġillo": 1155,
    "ĠChr": 1156,
    "oli": 1157,
    "Ġoffic": 1158,
    "glice": 1159,
    "Ġsus": 1160,
    "iti": 1161,
    "cr": 1162,
    "Ġprimum": 1163,
    "Ġtempus": 1164,
    "Ġfilius": 1165,
    "Ġrebus": 1166,
    "Ġaliquam": 1167,
    "Ġabs": 1168,
    "Ġsaepe": 1169,
    "equ": 1170,
    "Ġplur": 1171,
    "Ġcaput": 1172,
    "Ġintelleg": 1173,
    "ĠComitatus": 1174,
    "erb": 1175,
    "Ġomnium": 1176,
    "Ġdign": 1177,
    "Ġregione": 1178,
    "eper": 1179,
    "Ġvita": 1180,
    "Ġposse": 1181,
    "Ġsatis": 1182,
    "utus": 1183,
    "Ġfam": 1184,
    "Ġ8": 1185,
    "Ġrei": 1186,
    "Ġexerc": 1187,
    "ĠPr": 1188,
    "\"\\\"\\\"\\\"\\": 1189,
    "Ġvic": 1190,
    "Ġsapient": 1191,
    "Ġsens": 1192,
    "Ġmut": 1193,
    "Ġquaedam": 1194,
    "urum": 1195,
    "Ġit": 1196,
    "ies": 1197,
    "Ġhon": 1198,
    "Ġcogit": 1199,
    "Ġtab": 1200,
    "Ġunum": 1201,
    "Ġhabere": 1202,
    "ĠEccles": 1203,
    "Ġvirtut": 1204,
    "ĠJ": 1205,
    "ord": 1206,
    "aris": 1207,
    "ĠHoc": 1208,
    "Ġsaec": 1209,
    "ĠQui": 1210,
    "Ġaccip": 1211,
    "iqu": 1212,
    "Ðµ": 1213,
    "Ġhomo": 1214,
    "Ġinquit": 1215,
    "Ġfacta": 1216,
    "Ġait": 1217,
    "Ġhum": 1218,
    "Ġmeus": 1219,
    "endo": 1220,
    "itiae": 1221,
    "dum": 1222,
    "Ġcognosc": 1223,
    "Ġhomines": 1224,
    "mn": 1225,
    "Ġtuum": 1226,
    "Ġiure": 1227,
    "Ġalia": 1228,
    "Ġfut": 1229,
    "ecta": 1230,
    "vis": 1231,
    "Ġomni": 1232,
    "Ġmed": 1233,
    "Ġign": 1234,
    "Ġtra": 1235,
    "Ġvitae": 1236,
    "Ġord": 1237,
    "ĠMar": 1238,
    "Ġaed": 1239,
    "Ġtuam": 1240,
    "Ġappell": 1241,
    "Ġfieri": 1242,
    "itis": 1243,
    "Ġpet": 1244,
    "ionibus": 1245,
    "Ġind": 1246,
    "ĠAmer": 1247,
    "Ġreliqu": 1248,
    "vi": 1249,
    "Ġcet": 1250,
    "Ġunde": 1251,
    "Ġmulta": 1252,
    "Ġstud": 1253,
    "ice": 1254,
    "ente": 1255,
    "Ġvelit": 1256,
    "Ġloquitur": 1257,
    "Et": 1258,
    "Ġipso": 1259,
    "ĠĠĠĠĠĠĠĠ": 1260,
    "ll": 1261,
    "Ð¸": 1262,
    "ito": 1263,
    "Ġpatr": 1264,
    "emo": 1265,
    "cce": 1266,
    "uct": 1267,
    "Ġsup": 1268,
    "Ġw": 1269,
    "ilium": 1270,
    "Ġverum": 1271,
    "14": 1272,
    "An": 1273,
    "Ġhanc": 1274,
    "Ġull": 1275,
    "Ġconi": 1276,
    "pos": 1277,
    "Ġ9": 1278,
    "eres": 1279,
    "Ġlaud": 1280,
    "act": 1281,
    "oph": 1282,
    "Ġtuus": 1283,
    "rehend": 1284,
    "Ġ|": 1285,
    "erent": 1286,
    "Ġhabent": 1287,
    "18": 1288,
    "Ġpertin": 1289,
    "Ġsen": 1290,
    "pect": 1291,
    "omodo": 1292,
    "Ġph": 1293,
    "Ġlong": 1294,
    "Ġ12": 1295,
    "Ġidem": 1296,
    "ecum": 1297,
    "ĠAd": 1298,
    "Ġiis": 1299,
    "inde": 1300,
    "Ġintel": 1301,
    "str": 1302,
    "Ġurbs": 1303,
    "idit": 1304,
    "Ġstat": 1305,
    ",\"": 1306,
    "inam": 1307,
    "uum": 1308,
    "Ġconstit": 1309,
    "Ġtui": 1310,
    "Ġglor": 1311,
    "Ġillius": 1312,
    "Ġbell": 1313,
    "ÑĤ": 1314,
    "Ġod": 1315,
    "Ġibi": 1316,
    "Ġdiscip": 1317,
    "Ġprovinc": 1318,
    "Ġmolestiae": 1319,
    "Ġproc": 1320,
    "13": 1321,
    "erv": 1322,
    "Ġdolorem": 1323,
    "In": 1324,
    "uper": 1325,
    "Ġnomine": 1326,
    "ĠEx": 1327,
    "Â»": 1328,
    "Ġsuae": 1329,
    "ana": 1330,
    "aes": 1331,
    "Ġtant": 1332,
    "asc": 1333,
    "Ġista": 1334,
    "inum": 1335,
    "Ġpropr": 1336,
    "Ġintellig": 1337,
    "Ġmens": 1338,
    "ĠDeum": 1339,
    "iant": 1340,
    "Ġ15": 1341,
    "ĠFoed": 1342,
    "uerunt": 1343,
    "enter": 1344,
    "Ġfilii": 1345,
    "Ġsubstant": 1346,
    "ph": 1347,
    "Ġannum": 1348,
    "Ġecclesia": 1349,
    "Ġem": 1350,
    "19": 1351,
    "Ġmun": 1352,
    "imo": 1353,
    "Ġiste": 1354,
    "ique": 1355,
    "Ġoport": 1356,
    "Ġmil": 1357,
    "Ġexist": 1358,
    "Ġdomum": 1359,
    "ĠCon": 1360,
    "Ġaliis": 1361,
    "Ġfact": 1362,
    "Ġsac": 1363,
    "rah": 1364,
    "erman": 1365,
    "\":": 1366,
    "11": 1367,
    "enta": 1368,
    "Ġerant": 1369,
    "Ġhominum": 1370,
    "num": 1371,
    "Ġpul": 1372,
    "ath": 1373,
    "Ġomne": 1374,
    "uv": 1375,
    "ĠUt": 1376,
    "entis": 1377,
    "ĠLorem": 1378,
    "Ġconsequatur": 1379,
    "sa": 1380,
    "Ġ17": 1381,
    "bit": 1382,
    "Ġpraedic": 1383,
    "Ġadhuc": 1384,
    "Ġfaci": 1385,
    "Ġaqu": 1386,
    "oll": 1387,
    "Ġfacit": 1388,
    "Ġloco": 1389,
    "ĠIud": 1390,
    "Ġpotius": 1391,
    "ĠBr": 1392,
    "15": 1393,
    "Ġaper": 1394,
    "Ġpecc": 1395,
    "ast": 1396,
    "ĠHaec": 1397,
    "Ġplus": 1398,
    "17": 1399,
    "Ġmuli": 1400,
    "entibus": 1401,
    "ĠSan": 1402,
    "Ġmeam": 1403,
    "Ġpo": 1404,
    "Ġaccus": 1405,
    "Ġcontr": 1406,
    "cumque": 1407,
    "Ġlat": 1408,
    "Ġsubi": 1409,
    "Ġquin": 1410,
    "ãģ": 1411,
    "Ġdicta": 1412,
    "Ġspec": 1413,
    "if": 1414,
    "arent": 1415,
    "lin": 1416,
    "Ġrex": 1417,
    "Ġsive": 1418,
    "Ġvoluptatem": 1419,
    "ĠÂ·": 1420,
    "Ġtrans": 1421,
    "Ġfal": 1422,
    "Ġsignific": 1423,
    "itiam": 1424,
    "Ġadm": 1425,
    "Ġimm": 1426,
    "ffect": 1427,
    "ĠX": 1428,
    "Ġdisp": 1429,
    "Ġliber": 1430,
    "Ġsoc": 1431,
    "Ġdub": 1432,
    "urg": 1433,
    "Ġcup": 1434,
    "ebant": 1435,
    "16": 1436,
    "abo": 1437,
    "ilius": 1438,
    "irm": 1439,
    "Ġoper": 1440,
    "Ġuna": 1441,
    "Ġrect": 1442,
    "âĢĿ": 1443,
    "ĠCum": 1444,
    "Ġideo": 1445,
    "arii": 1446,
    "ĠMa": 1447,
    "Ġbe": 1448,
    "ivers": 1449,
    "Ġost": 1450,
    "ationis": 1451,
    "odie": 1452,
    "Ġpon": 1453,
    "alem": 1454,
    "Ġmemor": 1455,
    "ĠAl": 1456,
    "ĠCiv": 1457,
    "Ġvi": 1458,
    "Ġomnem": 1459,
    "Ġ13": 1460,
    "Ġmater": 1461,
    "Ġopus": 1462,
    "Ġaequ": 1463,
    "Ġsui": 1464,
    "ĠCaes": 1465,
    "ĠUn": 1466,
    "itio": 1467,
    "Ġthe": 1468,
    "ĠPat": 1469,
    "tem": 1470,
    "Ñģ": 1471,
    "ane": 1472,
    "ĠQuam": 1473,
    "Ġnostra": 1474,
    "Ġdeus": 1475,
    "Ġfuisse": 1476,
    "ectum": 1477,
    "uo": 1478,
    "ĠK": 1479,
    "ĠAb": 1480,
    "Ġtunc": 1481,
    "Ġoppid": 1482,
    "lo": 1483,
    "ĠPh": 1484,
    "Ġtamquam": 1485,
    "ĠQuis": 1486,
    "Ġipsi": 1487,
    "Ġnostrum": 1488,
    "eque": 1489,
    "Ġtim": 1490,
    "Ġsuis": 1491,
    "Ġ14": 1492,
    "Ġsimul": 1493,
    "erint": 1494,
    "ani": 1495,
    "ide": 1496,
    "Ġomnino": 1497,
    "Ġdies": 1498,
    "Ġfuerit": 1499,
    "jus": 1500,
    "Ð½": 1501,
    "Ġsumus": 1502,
    "Ġaedific": 1503,
    "uerit": 1504,
    "Ġratione": 1505,
    "ĠâĢľ": 1506,
    "ĠAp": 1507,
    "Ġtuae": 1508,
    "ĠGerman": 1509,
    "Ġadi": 1510,
    "ĠIes": 1511,
    "ĠOmn": 1512,
    "avi": 1513,
    "nam": 1514,
    "itudo": 1515,
    "Ġvoluptas": 1516,
    "Ġterram": 1517,
    "Ġquant": 1518,
    "Ġquomodo": 1519,
    "asse": 1520,
    "ĠSanct": 1521,
    "Ġregn": 1522,
    "ĠCo": 1523,
    "Ġpater": 1524,
    "Ġsermon": 1525,
    "iles": 1526,
    "Ġnatus": 1527,
    "Ġnemo": 1528,
    "imum": 1529,
    "ulos": 1530,
    "Ġdedit": 1531,
    "issime": 1532,
    "Ġepiscop": 1533,
    "ĠIo": 1534,
    "crip": 1535,
    "iatur": 1536,
    "lis": 1537,
    "ric": 1538,
    "arium": 1539,
    "Ã©": 1540,
    "Ġbona": 1541,
    "issimum": 1542,
    "ev": 1543,
    "uet": 1544,
    "Ġcumque": 1545,
    "Ġdem": 1546,
    "Ġmagna": 1547,
    "bul": 1548,
    "ebam": 1549,
    "Ġitaque": 1550,
    "Ġfactus": 1551,
    "Ġscripta": 1552,
    "anum": 1553,
    "Ġdiff": 1554,
    "Ġmet": 1555,
    "odem": 1556,
    "ano": 1557,
    "umquam": 1558,
    "inae": 1559,
    "Ġpossimus": 1560,
    "Ġverba": 1561,
    "Ġmov": 1562,
    "Ġexs": 1563,
    "libus": 1564,
    "ĠFoederat": 1565,
    "ĠSic": 1566,
    "Si": 1567,
    "Ġdist": 1568,
    "ua": 1569,
    "ider": 1570,
    "22": 1571,
    "tere": 1572,
    "Ġhac": 1573,
    "anus": 1574,
    "ang": 1575,
    "Ġloqui": 1576,
    "ilicet": 1577,
    "Ġparte": 1578,
    "ilos": 1579,
    "th": 1580,
    "Ġult": 1581,
    "Ġnoc": 1582,
    "Ġluc": 1583,
    "Ġcontin": 1584,
    "Ġdet": 1585,
    "idunt": 1586,
    "Ġconven": 1587,
    "vert": 1588,
    "Ġquantum": 1589,
    "lar": 1590,
    "te": 1591,
    "atae": 1592,
    "Ġhominem": 1593,
    "Ġratio": 1594,
    "Ġfl": 1595,
    "Ġcreatus": 1596,
    "Ġth": 1597,
    "tr": 1598,
    "Ġsing": 1599,
    "Ġanima": 1600,
    "Ġdolor": 1601,
    ".\"": 1602,
    "Ġquorum": 1603,
    "Ġvoluptate": 1604,
    "Ġprod": 1605,
    "Ġperfect": 1606,
    "Ġpraecip": 1607,
    "%)": 1608,
    "Ġdon": 1609,
    "Ġquaest": 1610,
    "Ġpor": 1611,
    "ales": 1612,
    "ĠEcclesiae": 1613,
    "uxta": 1614,
    "Ġmalum": 1615,
    "iorum": 1616,
    "ÑĢ": 1617,
    "inus": 1618,
    "Ġadd": 1619,
    "Ġ16": 1620,
    "ilosoph": 1621,
    "one": 1622,
    "Ġ10": 1623,
    "Ġscilicet": 1624,
    "ĠAnno": 1625,
    "Ġinquam": 1626,
    "Ġscient": 1627,
    "21": 1628,
    "Ġeffic": 1629,
    "uri": 1630,
    "Ġdictum": 1631,
    "Ġtrib": 1632,
    "Ġauc": 1633,
    "reg": 1634,
    "ena": 1635,
    "Ġmodi": 1636,
    "ĠAmericae": 1637,
    "so": 1638,
    "Ġfit": 1639,
    "itatu": 1640,
    "Ġessent": 1641,
    "Ġecclesiae": 1642,
    "ĠIuli": 1643,
    "Ġunivers": 1644,
    "ĠFranciae": 1645,
    "Ġpac": 1646,
    "Ġfer": 1647,
    "rog": 1648,
    "Ġfor": 1649,
    "Ġaliqua": 1650,
    "Ġadvers": 1651,
    "Ġantiqu": 1652,
    "Ġlibero": 1653,
    "Ð»": 1654,
    "lia": 1655,
    "Ġduo": 1656,
    "Ġtrad": 1657,
    "ign": 1658,
    "Ġbeat": 1659,
    "andi": 1660,
    "ĠW": 1661,
    "Ġvult": 1662,
    "entium": 1663,
    "ibile": 1664,
    "ĠFrancicum": 1665,
    "onis": 1666,
    "Ġmir": 1667,
    "icam": 1668,
    "emb": 1669,
    "Ġvet": 1670,
    "Ġcond": 1671,
    "Ġarg": 1672,
    "Ġearum": 1673,
    "ĠquÃ¦": 1674,
    "Ġprius": 1675,
    "plic": 1676,
    "Ġdico": 1677,
    "ĠTh": 1678,
    "Ġverbum": 1679,
    "Ġelig": 1680,
    "Ġquic": 1681,
    "ach": 1682,
    "Ġpossess": 1683,
    "Ġanimi": 1684,
    "Ġprimo": 1685,
    "),": 1686,
    "Ġ%)": 1687,
    "Ġmon": 1688,
    "lim": 1689,
    "arem": 1690,
    "Ġdum": 1691,
    "Ġutrum": 1692,
    "Ġconsul": 1693,
    "Ġmulto": 1694,
    "Ġdebet": 1695,
    "iores": 1696,
    "Ġev": 1697,
    "Ġquisquam": 1698,
    "ung": 1699,
    "lex": 1700,
    "ime": 1701,
    "abit": 1702,
    "Ġcomitatus": 1703,
    "ĠReg": 1704,
    "Ġlingua": 1705,
    "ard": 1706,
    "Ġvenit": 1707,
    "Ġgrav": 1708,
    "Ġmand": 1709,
    "Ġhunc": 1710,
    "oth": 1711,
    "Ġdici": 1712,
    "Ġaudiv": 1713,
    "ĠEr": 1714,
    "Ġaudi": 1715,
    "Ġnecesse": 1716,
    "Ġpostea": 1717,
    "erbum": 1718,
    "la": 1719,
    "Ġcomitatu": 1720,
    "Ġanimo": 1721,
    "Ġhaud": 1722,
    "Ġmelius": 1723,
    "Ġeiusdem": 1724,
    "Ġrationem": 1725,
    "terea": 1726,
    "Ġauctor": 1727,
    "na": 1728,
    "Ġed": 1729,
    "Ġpulch": 1730,
    "ei": 1731,
    "Ġlic": 1732,
    "Ġscire": 1733,
    "ebatur": 1734,
    "Ġannos": 1735,
    "Ġmiser": 1736,
    "Anglice": 1737,
    "cur": 1738,
    "Ġhabe": 1739,
    "Ġcel": 1740,
    "Ġmot": 1741,
    "endam": 1742,
    "Ġeadem": 1743,
    "utum": 1744,
    "Ġexplic": 1745,
    "Ġfamili": 1746,
    "Ġamp": 1747,
    "ĠDomini": 1748,
    "Ġgenere": 1749,
    "Ġsequitur": 1750,
    "Ġphilosoph": 1751,
    "ys": 1752,
    "qui": 1753,
    "ori": 1754,
    "ĠSp": 1755,
    "Ġaetern": 1756,
    "ĠHic": 1757,
    "Ġobs": 1758,
    "Ġsecund": 1759,
    "Ġtert": 1760,
    "unty": 1761,
    "ulp": 1762,
    "Ġipsam": 1763,
    "Ġarbit": 1764,
    "Ġinstit": 1765,
    "Ġfilium": 1766,
    "Ġart": 1767,
    "ypt": 1768,
    "ĠÃ": 1769,
    "Ġnol": 1770,
    "urus": 1771,
    "ĠCounty": 1772,
    "ationes": 1773,
    "averunt": 1774,
    "ĠRomae": 1775,
    "Ġreprehend": 1776,
    "abat": 1777,
    "Ġexemp": 1778,
    "Ġrespond": 1779,
    "Ġhodie": 1780,
    "idi": 1781,
    "agin": 1782,
    "ilio": 1783,
    "ebit": 1784,
    "Ġspir": 1785,
    "ĠCivitatibus": 1786,
    "mo": 1787,
    "Ġamet": 1788,
    "Ġperson": 1789,
    "Ġref": 1790,
    "ĠItaque": 1791,
    "Ġredd": 1792,
    "Ġdicunt": 1793,
    "Ġtuo": 1794,
    "Ġuel": 1795,
    "Ġcoll": 1796,
    "ĠFoederatis": 1797,
    "hib": 1798,
    "ras": 1799,
    "Ġeas": 1800,
    "onem": 1801,
    "icip": 1802,
    "ĠEst": 1803,
    "Ġlocum": 1804,
    "Ġch": 1805,
    "Ġiuxta": 1806,
    "Ġsoluta": 1807,
    "Ġcausam": 1808,
    "uti": 1809,
    "Ġdomus": 1810,
    "red": 1811,
    "Ġpossumus": 1812,
    "Ġeodem": 1813,
    "ation": 1814,
    "Ġillam": 1815,
    "alia": 1816,
    "20": 1817,
    "uis": 1818,
    "Ġmeo": 1819,
    "ates": 1820,
    "anda": 1821,
    "Ġprof": 1822,
    "iorem": 1823,
    "Ġtempora": 1824,
    "ĠAnt": 1825,
    "ĠPl": 1826,
    "....": 1827,
    "Ġcorporis": 1828,
    "ico": 1829,
    "icis": 1830,
    "ĠChrist": 1831,
    "Ġecce": 1832,
    "erim": 1833,
    "ĠÂ«": 1834,
    "Ġfin": 1835,
    "Ġperm": 1836,
    "Ġbib": 1837,
    "Ġparv": 1838,
    "itudinem": 1839,
    "ĠIsrah": 1840,
    "Sed": 1841,
    "Ġcogitat": 1842,
    "23": 1843,
    "quis": 1844,
    "arius": 1845,
    "ĠAeg": 1846,
    "Ġgaud": 1847,
    "Ġminima": 1848,
    "Ġpraest": 1849,
    "Ġhominis": 1850,
    "uetud": 1851,
    "XX": 1852,
    "Ġdicuntur": 1853,
    "Ġprofect": 1854,
    "Ġcirca": 1855,
    "25": 1856,
    "Ġlae": 1857,
    "ĠNihil": 1858,
    "Non": 1859,
    "Ġdiss": 1860,
    "Ġnaturae": 1861,
    "Ġalic": 1862,
    "Ġcal": 1863,
    "ĠIsrahel": 1864,
    "iuntur": 1865,
    "ensis": 1866,
    "Ġhabeat": 1867,
    "ĠGal": 1868,
    "Ġoportet": 1869,
    "uic": 1870,
    "Ġunus": 1871,
    "\"\\\"\\\"\\\"\\\"\\\"\\\"\\\"\\": 1872,
    "ons": 1873,
    "Ġlabor": 1874,
    "Ġaliquo": 1875,
    "Ġprima": 1876,
    "Ġimpedit": 1877,
    "24": 1878,
    "26": 1879,
    "ĠId": 1880,
    "Ġdicam": 1881,
    "Ġclar": 1882,
    "ario": 1883,
    "erant": 1884,
    "onium": 1885,
    "essit": 1886,
    "ĠAnglice": 1887,
    "Ġnegot": 1888,
    "Ġpecuniam": 1889,
    "Ġang": 1890,
    "endit": 1891,
    "Ġepist": 1892,
    "Ġquamquam": 1893,
    "itates": 1894,
    "Ġ2000": 1895,
    "28": 1896,
    "ento": 1897,
    "let": 1898,
    "ident": 1899,
    "Ġlect": 1900,
    "Ġdicendum": 1901,
    "Ġhuman": 1902,
    "ma": 1903,
    "Ġ.": 1904,
    "Ġtur": 1905,
    "liae": 1906,
    "acob": 1907,
    "Ġmanu": 1908,
    "Can": 1909,
    "eh": 1910,
    "idem": 1911,
    "ulg": 1912,
    "Ġdicimus": 1913,
    "Ġdolore": 1914,
    "ispan": 1915,
    "Ġconsuetud": 1916,
    "Ġdixi": 1917,
    "Ġlocutus": 1918,
    "Ġoptio": 1919,
    "Ġcan": 1920,
    "Ġmi": 1921,
    "Ġfaciam": 1922,
    "elim": 1923,
    "mod": 1924,
    "Ġejus": 1925,
    "Ġfinem": 1926,
    "ĠZ": 1927,
    "itu": 1928,
    "ulae": 1929,
    "Ġprom": 1930,
    "Ġveniam": 1931,
    "Ġdomu": 1932,
    "\",": 1933,
    "Ġerunt": 1934,
    "Ġessentia": 1935,
    "ox": 1936,
    "Ġlux": 1937,
    "Ġdep": 1938,
    "Ġipsius": 1939,
    "Ġden": 1940,
    "antium": 1941,
    "Ġdict": 1942,
    "Ġerr": 1943,
    "Ġterrae": 1944,
    "Ġmeae": 1945,
    "Ġdicens": 1946,
    "Ġsex": 1947,
    "oni": 1948,
    "Ġcop": 1949,
    "Ġcust": 1950,
    "Ġatt": 1951,
    "Ġmortem": 1952,
    "ĠAegypt": 1953,
    "ãĥ": 1954,
    "Ġbre": 1955,
    "Ġsept": 1956,
    "istis": 1957,
    "ĠNunc": 1958,
    "epta": 1959,
    "aus": 1960,
    "modi": 1961,
    "Ġdil": 1962,
    "Ġdiu": 1963,
    "iri": 1964,
    "Ġexistim": 1965,
    "Ġumquam": 1966,
    "Ġdiffic": 1967,
    "Ð¾Ð": 1968,
    "ĠChristi": 1969,
    "par": 1970,
    "Ġrecip": 1971,
    "Ġdei": 1972,
    "ĠPost": 1973,
    "ĠPrae": 1974,
    "Ġ&": 1975,
    "etis": 1976,
    "ĠCur": 1977,
    "Ġmei": 1978,
    "rob": 1979,
    "Ġav": 1980,
    "ĠIll": 1981,
    ");": 1982,
    "andae": 1983,
    "Ġcerte": 1984,
    "ros": 1985,
    "Ġhost": 1986,
    "Ġaliquando": 1987,
    "Ġlege": 1988,
    "land": 1989,
    "itionem": 1990,
    "Ġdiem": 1991,
    "Ġmagnam": 1992,
    "Ġsimil": 1993,
    "Ġpugn": 1994,
    "Ġeligendi": 1995,
    "ered": 1996,
    "Ġlicet": 1997,
    "Ġvidentur": 1998,
    "\\/": 1999,
    "uere": 2000,
    "Ġto": 2001,
    "Ġhominibus": 2002,
    "Ġplaceat": 2003,
    "Ġmagist": 2004,
    "Ġnaturam": 2005,
    "Ġiuris": 2006,
    "Ġdelect": 2007,
    "Ġtecum": 2008,
    "ĠSc": 2009,
    "Ġincip": 2010,
    "Ġtabulat": 2011,
    "Ġbellum": 2012,
    "Ġvera": 2013,
    "eph": 2014,
    "Ġgenus": 2015,
    "Ġuxorem": 2016,
    "Ġsupra": 2017,
    "Ġvig": 2018,
    "ereb": 2019,
    "ĠIos": 2020,
    "Ġpol": 2021,
    "Ġpotestate": 2022,
    "Ġsalut": 2023,
    "Nam": 2024,
    "Ġeff": 2025,
    "Ġon": 2026,
    "Ġreper": 2027,
    "Ġpauc": 2028,
    "anu": 2029,
    "issima": 2030,
    "iret": 2031,
    "nis": 2032,
    "Ġcorpus": 2033,
    "30": 2034,
    "Ġsper": 2035,
    "ĠCar": 2036,
    "Ġseu": 2037,
    "Ġpropri": 2038,
    "Ġpopulo": 2039,
    "Ġdeinde": 2040,
    "ĠPet": 2041,
    "Ġaliter": 2042,
    "Ġalien": 2043,
    "Quod": 2044,
    "issent": 2045,
    "III": 2046,
    "Ġy": 2047,
    "Ġindic": 2048,
    "ĠIm": 2049,
    "Quid": 2050,
    "Ġalio": 2051,
    "Ġtotum": 2052,
    "Ġhonest": 2053,
    "cus": 2054,
    "Ġproxim": 2055,
    "Ġtabula": 2056,
    ".,": 2057,
    "Ġcong": 2058,
    "ipisc": 2059,
    "Ġposset": 2060,
    "Ġaccid": 2061,
    "Ġmodum": 2062,
    "Ġvitam": 2063,
    "erus": 2064,
    "eram": 2065,
    "imur": 2066,
    "Ġmultis": 2067,
    "Ġreprehenderit": 2068,
    "uen": 2069,
    "ĠEgo": 2070,
    "ĠIesus": 2071,
    "Ġmeli": 2072,
    "âĢĻ": 2073,
    "Ġfugiat": 2074,
    "Ġuid": 2075,
    "Ġlibert": 2076,
    "Ġpartes": 2077,
    "Ġvocem": 2078,
    "Ġnob": 2079,
    "Ġtuis": 2080,
    "Ġ2009": 2081,
    "Ġdesc": 2082,
    "Ġvelim": 2083,
    "ĠNov": 2084,
    "tu": 2085,
    "ioec": 2086,
    "Ġand": 2087,
    "Ġpae": 2088,
    "imis": 2089,
    "Ġcupid": 2090,
    ".)": 2091,
    "Ġquot": 2092,
    "Ġfur": 2093,
    "Ġopin": 2094,
    "uncta": 2095,
    "ioeces": 2096,
    "aliter": 2097,
    "ĠCat": 2098,
    "Ġpotentia": 2099,
    "Ġuno": 2100,
    "Ġof": 2101,
    "ĠIudae": 2102,
    "De": 2103,
    "29": 2104,
    "Ġport": 2105,
    "Ġquaerat": 2106,
    "embris": 2107,
    "ce": 2108,
    "ni": 2109,
    "oque": 2110,
    "Ġmitt": 2111,
    "Ġipsis": 2112,
    "Ġsuscip": 2113,
    "athol": 2114,
    "Ġmundum": 2115,
    "ulam": 2116,
    "ĠEp": 2117,
    "andem": 2118,
    "Ġmaius": 2119,
    "Ġmultum": 2120,
    "Ġsumma": 2121,
    "Ġcogitari": 2122,
    "Ġk": 2123,
    "abitur": 2124,
    "Ġben": 2125,
    "ou": 2126,
    "Ġequ": 2127,
    "accur": 2128,
    "Ġsucc": 2129,
    "ĠAs": 2130,
    "ĠAli": 2131,
    "Ġfuerunt": 2132,
    "Ġiudicium": 2133,
    "Ġingen": 2134,
    "accurate": 2135,
    "50": 2136,
    "Ġnunt": 2137,
    "ich": 2138,
    "ecto": 2139,
    "ivit": 2140,
    "Ġquidam": 2141,
    "ebus": 2142,
    "Ġlac": 2143,
    "ĠSt": 2144,
    "Ġaliae": 2145,
    "Ġhabeo": 2146,
    "Ð°Ð": 2147,
    "27": 2148,
    "iarum": 2149,
    "pr": 2150,
    "uss": 2151,
    "Ġfaciunt": 2152,
    "Ġscript": 2153,
    "Ġdisput": 2154,
    "hen": 2155,
    "Ġinim": 2156,
    "Ġpriv": 2157,
    "Ġpraed": 2158,
    "Ġlibro": 2159,
    "Ġputo": 2160,
    "Ġforte": 2161,
    "Ġgratiam": 2162,
    "Ġfrater": 2163,
    "Ġarbitr": 2164,
    "rac": 2165,
    "Ġsuos": 2166,
    "Ġcorr": 2167,
    "Ġdefin": 2168,
    "Ġcr": 2169,
    "Ġrog": 2170,
    "ress": 2171,
    "Ġfortasse": 2172,
    "Ġpublica": 2173,
    "Ġiterum": 2174,
    "lus": 2175,
    "ugn": 2176,
    "ãĤ": 2177,
    "Ġmanus": 2178,
    "Ġfruc": 2179,
    "ĠErgo": 2180,
    "33": 2181,
    "atu": 2182,
    "atibus": 2183,
    "entus": 2184,
    "Ġadipisc": 2185,
    "Ġvolo": 2186,
    "Ġteneb": 2187,
    "het": 2188,
    "pet": 2189,
    "inct": 2190,
    "Ġculp": 2191,
    "Ġfere": 2192,
    "Ġconv": 2193,
    "Ġtemporibus": 2194,
    "Ġprovincia": 2195,
    "Ġrecte": 2196,
    "lem": 2197,
    "Ġperic": 2198,
    "ĠMag": 2199,
    "Ġpropos": 2200,
    "Ġquicquam": 2201,
    "Ġaur": 2202,
    "ulorum": 2203,
    "Ġquaecumque": 2204,
    "ĠInt": 2205,
    "Ġaccep": 2206,
    "Ġfecisti": 2207,
    "Ġpuer": 2208,
    "Ã¡": 2209,
    "ariae": 2210,
    "Ġuti": 2211,
    "ilem": 2212,
    "issimus": 2213,
    "Ġopera": 2214,
    "Ġterr": 2215,
    "Ġalii": 2216,
    "Ġcas": 2217,
    "irum": 2218,
    "Ġlabore": 2219,
    "Ġeffect": 2220,
    "erentur": 2221,
    "ioni": 2222,
    "ĠAut": 2223,
    "ĠPer": 2224,
    "Ġoratio": 2225,
    "Ġpostquam": 2226,
    "Haec": 2227,
    "iit": 2228,
    "natus": 2229,
    "Ġ;": 2230,
    "Ġ<": 2231,
    "antes": 2232,
    "Ġalias": 2233,
    "Ġperd": 2234,
    "Ġ194": 2235,
    "Ġ/": 2236,
    "Ġaest": 2237,
    "Ġrev": 2238,
    "Ġ199": 2239,
    "ugust": 2240,
    "rb": 2241,
    "anae": 2242,
    "Ġdomo": 2243,
    "Ġq": 2244,
    "Ġmecum": 2245,
    "Ġnondum": 2246,
    "ĠNec": 2247,
    "Ġincidunt": 2248,
    "ron": 2249,
    "itationem": 2250,
    "ĠQuia": 2251,
    "ensi": 2252,
    "erimus": 2253,
    "Ġaff": 2254,
    "ĠHispan": 2255,
    "ĠDav": 2256,
    "Ġviri": 2257,
    "Ġusus": 2258,
    "ĠUnde": 2259,
    "ĠSpir": 2260,
    "Ġmar": 2261,
    "Ġlud": 2262,
    "tare": 2263,
    "Ġpopulum": 2264,
    "Ġgratia": 2265,
    "Ġfuturum": 2266,
    "Ġquodam": 2267,
    "Ġfacile": 2268,
    "Ġhabit": 2269,
    "Ġquibusdam": 2270,
    "Ġpopulus": 2271,
    "annes": 2272,
    "ifest": 2273,
    "Ġnar": 2274,
    "ren": 2275,
    "abis": 2276,
    "Ġdiebus": 2277,
    "Ġpotuit": 2278,
    "Ġaliquod": 2279,
    "Ġimag": 2280,
    "Ġhomine": 2281,
    "ix": 2282,
    "Ġiac": 2283,
    "Ġfem": 2284,
    "Ġgest": 2285,
    "Ġannis": 2286,
    "ĠĠĠĠĠĠĠĠĠĠĠĠĠĠĠĠ": 2287,
    "Ġpertinet": 2288,
    "Ad": 2289,
    "Ex": 2290,
    "Ġped": 2291,
    "Ġnav": 2292,
    "ict": 2293,
    "Ġ20": 2294,
    "Quis": 2295,
    "ĠQuo": 2296,
    "Ġpuell": 2297,
    "Ġsententia": 2298,
    "Ġvalde": 2299,
    "Ġnesciunt": 2300,
    "32": 2301,
    "Ġson": 2302,
    "Ġhos": 2303,
    "Ġutil": 2304,
    "ĠHi": 2305,
    "libet": 2306,
    "Ġcoram": 2307,
    "Ġlocus": 2308,
    "Ġsequi": 2309,
    "Ġtestim": 2310,
    "Ġaug": 2311,
    "Ġmiss": 2312,
    "Ġdeum": 2313,
    "ĠNeque": 2314,
    "Ġanni": 2315,
    "Ġoff": 2316,
    "Ġnullum": 2317,
    "itudine": 2318,
    ".{": 2319,
    "verunt": 2320,
    "erd": 2321,
    "Ġini": 2322,
    "rec": 2323,
    "endus": 2324,
    "Ġfacti": 2325,
    "Ġlinguam": 2326,
    "Ġforma": 2327,
    "Num": 2328,
    "icem": 2329,
    "Ġfoed": 2330,
    "Ġvidere": 2331,
    "Ġsane": 2332,
    "Ġfortun": 2333,
    "Ġlitteras": 2334,
    "aretur": 2335,
    "Ġsuas": 2336,
    "iora": 2337,
    "Ġagere": 2338,
    "Ġverbis": 2339,
    "Ġsententiae": 2340,
    "Ġvivere": 2341,
    "quod": 2342,
    "ionum": 2343,
    "Ġurbe": 2344,
    "Ġcogno": 2345,
    "ĠSept": 2346,
    "Ġambul": 2347,
    "iscum": 2348,
    "Ġscriptum": 2349,
    "Ġsaeculo": 2350,
    "Ġconiunct": 2351,
    "itiis": 2352,
    "uris": 2353,
    "Ġiuc": 2354,
    "ĠLib": 2355,
    "Ġinterrog": 2356,
    "Ġpublicae": 2357,
    "Ġrespondit": 2358,
    "Ġextra": 2359,
    "ĠDavid": 2360,
    "yr": 2361,
    "Ġsin": 2362,
    "Ġmerc": 2363,
    "icorum": 2364,
    "Ġads": 2365,
    "Ġrepell": 2366,
    "Ġintellect": 2367,
    "lam": 2368,
    "ru": 2369,
    "Ġveh": 2370,
    "antibus": 2371,
    "ĠVerbum": 2372,
    "Ġscrips": 2373,
    "Ġmaiores": 2374,
    "Ġdam": 2375,
    "ĠAugust": 2376,
    "ostol": 2377,
    "Ġpatrem": 2378,
    "Ġdivis": 2379,
    "Ġdim": 2380,
    "itati": 2381,
    "Ġcast": 2382,
    "Ġurbem": 2383,
    "Ġdivers": 2384,
    "Ġignor": 2385,
    "Ġexspect": 2386,
    "non": 2387,
    "pici": 2388,
    "olog": 2389,
    "Ġrelin": 2390,
    "ĠPa": 2391,
    "Ġnostri": 2392,
    "Ġlinguae": 2393,
    "Ġeven": 2394,
    "quir": 2395,
    "anis": 2396,
    "ulit": 2397,
    "eperunt": 2398,
    "Ġnasc": 2399,
    "Ġvers": 2400,
    "Ġessem": 2401,
    "Ġmulti": 2402,
    "ĠDomine": 2403,
    "Ġdux": 2404,
    "ĠâĢĵ": 2405,
    "Ġra": 2406,
    "Ġaux": 2407,
    "Ġetsi": 2408,
    "Ġhered": 2409,
    "ania": 2410,
    "oss": 2411,
    "Ġmeis": 2412,
    "endis": 2413,
    "Ġpartem": 2414,
    "Ġpraesens": 2415,
    "Ġmundo": 2416,
    "Ġodio": 2417,
    "Ġoppidum": 2418,
    "ola": 2419,
    "ares": 2420,
    "Ġaccepit": 2421,
    "Ġcompos": 2422,
    "Ġcaelum": 2423,
    "36": 2424,
    "itae": 2425,
    "ulator": 2426,
    "ĠAc": 2427,
    "Ġillos": 2428,
    "âĢ¦": 2429,
    "ĠÂ»": 2430,
    "uisse": 2431,
    "Ġsor": 2432,
    "ith": 2433,
    "Ġhuic": 2434,
    "Ġass": 2435,
    "Ġpopuli": 2436,
    "Ġtota": 2437,
    "Ġullam": 2438,
    "ĠNum": 2439,
    "Ġanimae": 2440,
    "Ġcura": 2441,
    "amur": 2442,
    "Ġrelig": 2443,
    "ave": 2444,
    "Ġvideatur": 2445,
    "rop": 2446,
    "rent": 2447,
    "Ġadf": 2448,
    "istor": 2449,
    "Ġvideb": 2450,
    "ustr": 2451,
    "ĠEtiam": 2452,
    "ĠProv": 2453,
    "Ġperf": 2454,
    "Ġfiliis": 2455,
    "issimi": 2456,
    "Ġcorpore": 2457,
    "Ġfide": 2458,
    "Ġsust": 2459,
    "usc": 2460,
    "Ġfabul": 2461,
    "ĠPom": 2462,
    "Ġmanifest": 2463,
    "Ġsociet": 2464,
    "ow": 2465,
    "urr": 2466,
    "Ġfig": 2467,
    "ĠIl": 2468,
    "ĠVol": 2469,
    "Ġbonorum": 2470,
    "Ġ2011": 2471,
    "Ġadhib": 2472,
    "Ġmemoria": 2473,
    ".'": 2474,
    "Ġquar": 2475,
    "Ġlum": 2476,
    "ĠIacob": 2477,
    "Ġperven": 2478,
    "Ġhabuit": 2479,
    "Ġpatris": 2480,
    "Ġscriptor": 2481,
    "onte": 2482,
    "Ġli": 2483,
    "inqu": 2484,
    "endere": 2485,
    "Ġnullo": 2486,
    "Ġsubstantia": 2487,
    "Ġmulier": 2488,
    "ixit": 2489,
    "Ġparum": 2490,
    "Ġorient": 2491,
    "Ġarch": 2492,
    "ense": 2493,
    "elli": 2494,
    "Ġmundus": 2495,
    "Ġstatim": 2496,
    "nit": 2497,
    "Ðº": 2498,
    "Ñĥ": 2499,
    "eros": 2500,
    "Ġtut": 2501,
    "enus": 2502,
    "ectetur": 2503,
    "Ġsch": 2504,
    "Ġnostro": 2505,
    "Ġordin": 2506,
    "unquam": 2507,
    "Ġla": 2508,
    "Ġ24": 2509,
    "ertim": 2510,
    "ariis": 2511,
    "Ġlitteris": 2512,
    "aginta": 2513,
    "Ġeu": 2514,
    "Ġaffect": 2515,
    "onia": 2516,
    "idie": 2517,
    "Ġrefer": 2518,
    "atores": 2519,
    "rip": 2520,
    "rorum": 2521,
    "uram": 2522,
    "Ġpossid": 2523,
    "Ġpariatur": 2524,
    "Ġaliquis": 2525,
    "Ġfidem": 2526,
    "Ġculpa": 2527,
    "iendum": 2528,
    "lac": 2529,
    "Ġpret": 2530,
    "Ġiniqu": 2531,
    "Ġfre": 2532,
    "ara": 2533,
    "ĠIun": 2534,
    "ĠIanu": 2535,
    "Ġdicis": 2536,
    "Ġbonis": 2537,
    "Ġlegem": 2538,
    "Ġmanum": 2539,
    "Ġmateria": 2540,
    "Cum": 2541,
    "Ġcens": 2542,
    "Ġdeo": 2543,
    "iva": 2544,
    "Ġfratres": 2545,
    "Ġ2010": 2546,
    "Ġnescio": 2547,
    "Ġalicuius": 2548,
    "\",\"": 2549,
    "ax": 2550,
    "mus": 2551,
    "pi": 2552,
    "ond": 2553,
    "endae": 2554,
    "Ġquidquid": 2555,
    "Ġarc": 2556,
    "Ġmagni": 2557,
    "Ġmala": 2558,
    "ĠÂ§": 2559,
    "Î¿": 2560,
    "oniae": 2561,
    "Ġvia": 2562,
    "Ġvere": 2563,
    "Ġhort": 2564,
    "ecit": 2565,
    "Ġrel": 2566,
    "ante": 2567,
    "issem": 2568,
    "Ġdixerunt": 2569,
    "Ġamicitia": 2570,
    "Ġcompar": 2571,
    "Ġpecunia": 2572,
    "Ġofficia": 2573,
    "pectu": 2574,
    "Ġpal": 2575,
    "Ġuol": 2576,
    "Ġscripsit": 2577,
    "Ġsimplic": 2578,
    "Ġtotam": 2579,
    "Ġcircum": 2580,
    "Ġdemon": 2581,
    "Ġpossessionem": 2582,
    "fac": 2583,
    "Ġ11": 2584,
    "Ġhabebat": 2585,
    "andam": 2586,
    "Ġsolus": 2587,
    "Ġasper": 2588,
    "Ġaudivi": 2589,
    "Ġpass": 2590,
    "ĠIp": 2591,
    "ĠDec": 2592,
    "ĠPar": 2593,
    "ister": 2594,
    "Ġcunct": 2595,
    "Ġdare": 2596,
    "ĠMos": 2597,
    "Ġvidit": 2598,
    "Ġuero": 2599,
    "ĠVid": 2600,
    "Ġintra": 2601,
    "Ġboni": 2602,
    "Ġregem": 2603,
    "ĠLatine": 2604,
    "Ġtanta": 2605,
    "oh": 2606,
    "opt": 2607,
    "all": 2608,
    "Ġquamvis": 2609,
    "Ġanimam": 2610,
    "Ġnostris": 2611,
    "Ġassum": 2612,
    "Ġuxor": 2613,
    "erg": 2614,
    "itione": 2615,
    "stat": 2616,
    "ete": 2617,
    "Ġconsectetur": 2618,
    "Ġoculis": 2619,
    "Ġsententiam": 2620,
    "quidem": 2621,
    "ĠRomani": 2622,
    "Ġquat": 2623,
    "Ġdis": 2624,
    "Ġment": 2625,
    "enn": 2626,
    "entius": 2627,
    "Ġle": 2628,
    "ĠThe": 2629,
    "Ġpraesertim": 2630,
    "eptum": 2631,
    "Ġinvent": 2632,
    "Ġsaep": 2633,
    "Ġsensus": 2634,
    "Ġcustod": 2635,
    "Ġmundi": 2636,
    "Ġprovinciae": 2637,
    "Ġsy": 2638,
    "amen": 2639,
    "Ġquaes": 2640,
    "Ġanimus": 2641,
    "Ġfaciat": 2642,
    "Ġfacilis": 2643,
    "Ġ26": 2644,
    "ĠProvinc": 2645,
    "lect": 2646,
    "Î±": 2647,
    "Ġagn": 2648,
    "Ġparent": 2649,
    "ure": 2650,
    "Ġvinc": 2651,
    "Ġtem": 2652,
    "abile": 2653,
    "ĠII": 2654,
    "Ġtemporis": 2655,
    "Ġregis": 2656,
    "Ġ197": 2657,
    "Ġquisque": 2658,
    "Ġlittera": 2659,
    "sc": 2660,
    "ulc": 2661,
    "Ġnonne": 2662,
    "Ġret": 2663,
    "000": 2664,
    "Ġfeci": 2665,
    "Ġturp": 2666,
    "iebat": 2667,
    "Ġmer": 2668,
    "Ġcreatur": 2669,
    "Ġnumero": 2670,
    "Ġdominus": 2671,
    "ÃŃ": 2672,
    "Ġhi": 2673,
    "Ġquaeso": 2674,
    "Ġconsum": 2675,
    "Ġprophet": 2676,
    "Ġconting": 2677,
    "Ġ196": 2678,
    "Ġmilit": 2679,
    "cum": 2680,
    "eant": 2681,
    "uam": 2682,
    "itam": 2683,
    "Ġinde": 2684,
    "Ġantea": 2685,
    "Ġvalet": 2686,
    "ĠLatina": 2687,
    "Ġprimus": 2688,
    "ĠDic": 2689,
    "Ġscel": 2690,
    "Ġprincipio": 2691,
    "Ġlaet": 2692,
    "Ġisti": 2693,
    "Ġnat": 2694,
    "Ġfund": 2695,
    "imi": 2696,
    "Ġperpet": 2697,
    "ĠTum": 2698,
    "abulator": 2699,
    "Ġplacet": 2700,
    "crib": 2701,
    "Ġargum": 2702,
    "39": 2703,
    "lator": 2704,
    "qua": 2705,
    "quae": 2706,
    "umb": 2707,
    "ĠNull": 2708,
    "unda": 2709,
    "gu": 2710,
    "Ġviam": 2711,
    "ech": 2712,
    "Ġpossint": 2713,
    "Ġ28": 2714,
    "Ġplen": 2715,
    "Ġplane": 2716,
    "Ġfecerit": 2717,
    "Ġaudire": 2718,
    "Ġduae": 2719,
    "Ġisto": 2720,
    "Ġecclesiam": 2721,
    "Ġalterum": 2722,
    "Ġvix": 2723,
    "Ġdiffer": 2724,
    "Ġaestim": 2725,
    "Ġiniur": 2726,
    "Ġadul": 2727,
    "Ġlex": 2728,
    "Ġdolores": 2729,
    "Ġnumquid": 2730,
    "bulator": 2731,
    "Ġfel": 2732,
    "Ġdicat": 2733,
    "ĠPrim": 2734,
    "Ġpotes": 2735,
    "ioris": 2736,
    "Ġfilios": 2737,
    "Ġgener": 2738,
    "Ġamplius": 2739,
    "Ġintellectu": 2740,
    "null": 2741,
    "Ġnati": 2742,
    "Ġvac": 2743,
    "ecim": 2744,
    "Ġscio": 2745,
    "ĠâĢĺ": 2746,
    "Ġprincipium": 2747,
    "amp": 2748,
    "ute": 2749,
    "ĠCic": 2750,
    "ratus": 2751,
    "Ġcapt": 2752,
    "Ġconsilium": 2753,
    "ĠVen": 2754,
    "Ġsalv": 2755,
    "Ġsusc": 2756,
    "Ġproprium": 2757,
    "Ġporro": 2758,
    "ay": 2759,
    "Ġcondic": 2760,
    "ĠNe": 2761,
    "ĠMed": 2762,
    "ĠUrb": 2763,
    "Ġdecem": 2764,
    "ontific": 2765,
    "ĠAtque": 2766,
    "Ġpauper": 2767,
    "Ġexercitationem": 2768,
    "Ġceteris": 2769,
    "At": 2770,
    "rin": 2771,
    "Ġpropria": 2772,
    "ĠIoseph": 2773,
    "eremus": 2774,
    "Ġsemp": 2775,
    "Ġdata": 2776,
    "Ġutique": 2777,
    "Ġexper": 2778,
    "ĠEcce": 2779,
    "Ġgl": 2780,
    "eps": 2781,
    "Ġpraesid": 2782,
    "Ġconced": 2783,
    "cript": 2784,
    "35": 2785,
    "37": 2786,
    "ha": 2787,
    "uae": 2788,
    "Ġquare": 2789,
    "Ġta": 2790,
    "itatum": 2791,
    "Ġaliquem": 2792,
    "essus": 2793,
    "Ġcivitatis": 2794,
    "Ġcrim": 2795,
    "Ġnim": 2796,
    "ocrat": 2797,
    "ĠEpic": 2798,
    "Ġvideri": 2799,
    "Ġsignum": 2800,
    "ĠIanuarii": 2801,
    "rus": 2802,
    "Ñĭ": 2803,
    "ĠÎ": 2804,
    "Ġtres": 2805,
    "Ġfiat": 2806,
    "Ġadv": 2807,
    "Qui": 2808,
    "ĠQua": 2809,
    "Ġvideo": 2810,
    "Ġ25": 2811,
    "Ġalb": 2812,
    "Ġpartibus": 2813,
    "Ġtestimonium": 2814,
    "Ġaquam": 2815,
    "Ġvul": 2816,
    "ese": 2817,
    "Ġlev": 2818,
    "abatur": 2819,
    "ilibus": 2820,
    "Ġhabemus": 2821,
    "ivi": 2822,
    "Ġveritatis": 2823,
    "Ġsitum": 2824,
    "Ġvirum": 2825,
    "Ġ30": 2826,
    "Ġantequam": 2827,
    "Ġmisit": 2828,
    "ĠBrit": 2829,
    "Ġsubiectum": 2830,
    "Ġostend": 2831,
    "Ġregnum": 2832,
    "Ġutrumque": 2833,
    "Hoc": 2834,
    "ãĢ": 2835,
    "Ġha": 2836,
    "abilis": 2837,
    "ĠCl": 2838,
    "Ġpraem": 2839,
    "Ġusu": 2840,
    "ressus": 2841,
    "Ġpecuniae": 2842,
    "Ġaquae": 2843,
    "ĠIuda": 2844,
    "ĠPater": 2845,
    "Ġdistinct": 2846,
    "leg": 2847,
    "Ġrestit": 2848,
    "Ġbest": 2849,
    "Ġpotestatem": 2850,
    "Ġrelinqu": 2851,
    "34": 2852,
    "Ġvim": 2853,
    "Ġtandem": 2854,
    "ĠCor": 2855,
    "Quae": 2856,
    "Ġprofic": 2857,
    "Ġhomini": 2858,
    "inti": 2859,
    "Ġnoster": 2860,
    "Ġpostul": 2861,
    "Ġgeneris": 2862,
    "Ġputas": 2863,
    "Ġtestam": 2864,
    "ĠEcclesia": 2865,
    "Ġecclesiast": 2866,
    "Ġceleb": 2867,
    "Ġfrequ": 2868,
    "ribus": 2869,
    "eta": 2870,
    "ule": 2871,
    "ulli": 2872,
    "iori": 2873,
    "Ġloquor": 2874,
    "Ġpraeses": 2875,
    "Ġurbis": 2876,
    "Ġvoluntatem": 2877,
    "CC": 2878,
    "].": 2879,
    "Ġpen": 2880,
    "ĠLuc": 2881,
    "Ġfilio": 2882,
    "Ġcorde": 2883,
    "Ġjust": 2884,
    "Ġitem": 2885,
    "31": 2886,
    "eas": 2887,
    "Ġmus": 2888,
    "urre": 2889,
    "Ġtac": 2890,
    "Ġtalis": 2891,
    "Ġharum": 2892,
    "Ġhistor": 2893,
    "Ġpert": 2894,
    "Ġstult": 2895,
    "Ġnomina": 2896,
    "Ġtenetur": 2897,
    "Ġcetera": 2898,
    "Ġangel": 2899,
    "201": 2900,
    "ver": 2901,
    "Ġno": 2902,
    "Ġmagnum": 2903,
    "dus": 2904,
    "Ġpere": 2905,
    "aniae": 2906,
    "Ġquaeque": 2907,
    "antia": 2908,
    "Ġconsec": 2909,
    "Ġamicitiae": 2910,
    "Ġfugit": 2911,
    "Ġsacerd": 2912,
    "ĠBritann": 2913,
    "eatur": 2914,
    "Ġ0": 2915,
    "Ġ...": 2916,
    "inist": 2917,
    "atorum": 2918,
    "Ġdia": 2919,
    "Ġir": 2920,
    "abunt": 2921,
    "Ġdepos": 2922,
    "ĠDol": 2923,
    "Ġcomed": 2924,
    "Ġcommod": 2925,
    "Ġbenefic": 2926,
    "Ġpoen": 2927,
    "Ġbened": 2928,
    "Ġcorrupt": 2929,
    "Ġsempiter": 2930,
    "Ġnunquam": 2931,
    "redi": 2932,
    "eniti": 2933,
    "ĠCathol": 2934,
    "ĠQuare": 2935,
    "Ġ27": 2936,
    "Ġfecerunt": 2937,
    "itudinis": 2938,
    "ĠIsrae": 2939,
    "Ġvoluntate": 2940,
    "Ut": 2941,
    "à´": 2942,
    "itias": 2943,
    "onom": 2944,
    "enim": 2945,
    "ĠAg": 2946,
    "Ġalius": 2947,
    "Ġbland": 2948,
    "Ġacced": 2949,
    "Ġeleg": 2950,
    "eperit": 2951,
    "ĠQuamquam": 2952,
    "Ġsuscipit": 2953,
    "iu": 2954,
    "ĠFac": 2955,
    "ĠTu": 2956,
    "Ġcausae": 2957,
    "Ġcivitate": 2958,
    "Ġ2012": 2959,
    "Ġulla": 2960,
    "ioc": 2961,
    "Ġfest": 2962,
    "idic": 2963,
    "ĠEur": 2964,
    "ive": 2965,
    "ĠMo": 2966,
    "Ġ29": 2967,
    "Ġorb": 2968,
    "Ġdesider": 2969,
    "Ġ2008": 2970,
    "Ġscribere": 2971,
    "Ġhuiusmodi": 2972,
    "Ġplures": 2973,
    "ĠEpiscop": 2974,
    "uisti": 2975,
    "Î½": 2976,
    "atam": 2977,
    "uto": 2978,
    "Ġfore": 2979,
    "abant": 2980,
    "ĠSunt": 2981,
    "Ġconsilio": 2982,
    "Ġtabulato": 2983,
    "Ġasc": 2984,
    "Ġactum": 2985,
    "\":\"": 2986,
    "ĠProvincia": 2987,
    "uven": 2988,
    "umus": 2989,
    "orsus": 2990,
    "iderat": 2991,
    "sign": 2992,
    "Ġdubit": 2993,
    "\"\\\"\\\"\\\"\\\"\\\"\\\"\\\"\\\"\\\"\\\"\\\"\\\"\\\"\\\"\\\"\\": 2994,
    "ok": 2995,
    "idere": 2996,
    "ĠCap": 2997,
    "Ġbono": 2998,
    "Ġgenerat": 2999,
    "Ġofficiis": 3000,
    "Ġfutura": 3001,
    "etiae": 3002,
    "ĠEn": 3003,
    "age": 3004,
    "Ġcoepit": 3005,
    "Ġhabes": 3006,
    "Ġamb": 3007,
    "Ġquad": 3008,
    "Ġcommodi": 3009,
    "Ġvirtus": 3010,
    "Ġ198": 3011,
    "Ġmaiorem": 3012,
    "Ġofficium": 3013,
    "Ġmensis": 3014,
    "ĠOmnia": 3015,
    "Ġprofecto": 3016,
    "onum": 3017,
    "tav": 3018,
    "rare": 3019,
    "Ġpoterit": 3020,
    "eruntur": 3021,
    "illa": 3022,
    "ÐµÐ": 3023,
    "az": 3024,
    "com": 3025,
    "ht": 3026,
    "Â§": 3027,
    "iderunt": 3028,
    "Ġpros": 3029,
    "Ġaliam": 3030,
    "Ġanimal": 3031,
    "adem": 3032,
    "Ġtabulas": 3033,
    "Ġverborum": 3034,
    "Ġelect": 3035,
    "Ġquaeritur": 3036,
    "ĠIulii": 3037,
    "ĠIsrael": 3038,
    "rib": 3039,
    "ationibus": 3040,
    "antem": 3041,
    "Ġalium": 3042,
    "igin": 3043,
    "Ġlocis": 3044,
    "Ġdeserunt": 3045,
    "Ġ2007": 3046,
    "Ġcaelo": 3047,
    "Ġquinque": 3048,
    "Ġsingul": 3049,
    "ĠPompe": 3050,
    "lud": 3051,
    "Ġsuffic": 3052,
    "Ġens": 3053,
    "Ġhabitat": 3054,
    "Ġconsol": 3055,
    "Ġcontem": 3056,
    "Ġfiliae": 3057,
    "Ġfuisset": 3058,
    "rix": 3059,
    "ĠCaesar": 3060,
    "ÑģÑĤ": 3061,
    "eam": 3062,
    "mat": 3063,
    "Ġot": 3064,
    "Ġdorm": 3065,
    "Ġtoll": 3066,
    "Ġflum": 3067,
    "ĠSal": 3068,
    "Ġpraet": 3069,
    "Ġsep": 3070,
    "ĠDomino": 3071,
    "Ġmale": 3072,
    "Ġnota": 3073,
    "Ġpraecepta": 3074,
    "Ġvirtute": 3075,
    "Ġindig": 3076,
    "Ġgloriam": 3077,
    "Ġfaciem": 3078,
    "Ġbeatus": 3079,
    "Ġsecundo": 3080,
    "Ġprud": 3081,
    "Ġplura": 3082,
    "Ġmali": 3083,
    "Ġprope": 3084,
    "Ġiudicio": 3085,
    "Ġdedisti": 3086,
    "dign": 3087,
    "Ġelit": 3088,
    "Ġsigna": 3089,
    "ĠArist": 3090,
    "angeli": 3091,
    "ursus": 3092,
    "ĠIam": 3093,
    "Ġanc": 3094,
    "Ġfacult": 3095,
    "ĠLut": 3096,
    "erumque": 3097,
    "Ġalt": 3098,
    "Ġsermo": 3099,
    "Ġsubs": 3100,
    "Ġexped": 3101,
    "Ġnotare": 3102,
    "Ġdomine": 3103,
    "Ġquaerere": 3104,
    "PD": 3105,
    "ly": 3106,
    "quo": 3107,
    "Ġcant": 3108,
    "ensum": 3109,
    "itavit": 3110,
    "ĠAng": 3111,
    "Ġcivitatem": 3112,
    "Ġactu": 3113,
    "Ġoptime": 3114,
    "Ġexcept": 3115,
    "Ġlonge": 3116,
    "iantur": 3117,
    "ĠImper": 3118,
    "ke": 3119,
    "Ġ?": 3120,
    "Ġcib": 3121,
    "Ġdioeces": 3122,
    "ebantur": 3123,
    "Ġveritatem": 3124,
    "Ġquaerit": 3125,
    "Ġinterp": 3126,
    "Ġcredit": 3127,
    "Ġminor": 3128,
    "Ġtria": 3129,
    "Ġcivitas": 3130,
    "Ġmaxima": 3131,
    "Ġscribis": 3132,
    "Ġiustitiam": 3133,
    "Ġsummum": 3134,
    "ĠGermaniae": 3135,
    "¿½": 3136,
    "ï¿½": 3137,
    "Ġdatur": 3138,
    "iamus": 3139,
    "ĠCal": 3140,
    "ilii": 3141,
    "ĠMin": 3142,
    "averit": 3143,
    "Ġsola": 3144,
    "Ġsecum": 3145,
    "Ġlegatus": 3146,
    "Ġsenatus": 3147,
    "modum": 3148,
    "Ġerror": 3149,
    "40": 3150,
    "hod": 3151,
    "abam": 3152,
    "Ġalios": 3153,
    "Ġopere": 3154,
    "Ġnostram": 3155,
    "ĠOr": 3156,
    "Ġspect": 3157,
    "Ġiusto": 3158,
    "Ġmori": 3159,
    "\".": 3160,
    "48": 3161,
    "apt": 3162,
    "Ġau": 3163,
    "Ġdex": 3164,
    "Ġoperat": 3165,
    "Ġiudices": 3166,
    "Ġoccup": 3167,
    "ĠRomanae": 3168,
    "Ġinfin": 3169,
    "Ġclam": 3170,
    "ĠInter": 3171,
    "Ġvend": 3172,
    "imae": 3173,
    "iliter": 3174,
    "Ġscit": 3175,
    "Ġpossim": 3176,
    "Ġconsider": 3177,
    "Ġsolv": 3178,
    "Ġunius": 3179,
    "Ġpatre": 3180,
    "ĠDominum": 3181,
    "Ġ185": 3182,
    "Ġconfirm": 3183,
    "Ġiustitiae": 3184,
    "Ġextrem": 3185,
    "Ġpolit": 3186,
    "ĠEurop": 3187,
    "åİ": 3188,
    "Ġiter": 3189,
    "icarum": 3190,
    "Ġconvers": 3191,
    "Ġfacies": 3192,
    "Ġgoth": 3193,
    "Ġapostol": 3194,
    "Ġpossib": 3195,
    "ĠDeinde": 3196,
    "Ġminist": 3197,
    "Ġ195": 3198,
    "Ġconcess": 3199,
    "Ġiustus": 3200,
    "Ġformam": 3201,
    "Ġpluribus": 3202,
    "44": 3203,
    "tis": 3204,
    "aed": 3205,
    "Ġfirm": 3206,
    "Ġrelic": 3207,
    "Ġloque": 3208,
    "udi": 3209,
    "ala": 3210,
    "Ġfacilius": 3211,
    "Ġessentiam": 3212,
    "âĢĶ": 3213,
    "Ġputamus": 3214,
    "uxit": 3215,
    "Ġtabern": 3216,
    "Ġoperam": 3217,
    "iz": 3218,
    "ps": 3219,
    "Ñĩ": 3220,
    "Ġinst": 3221,
    "Ġetiamsi": 3222,
    "Ġipsorum": 3223,
    "ĠLa": 3224,
    "Ġvenire": 3225,
    "Ġoculi": 3226,
    "ĠAtt": 3227,
    "Ġcael": 3228,
    "Ġnecessitatibus": 3229,
    "Ġgothica": 3230,
    "ho": 3231,
    "rag": 3232,
    "Î¹": 3233,
    "errim": 3234,
    "Ġnata": 3235,
    "Ġdev": 3236,
    "Ġdiceret": 3237,
    "Ġsollic": 3238,
    "Ġori": 3239,
    "iosum": 3240,
    "Ġsapientia": 3241,
    "iore": 3242,
    "ĠAf": 3243,
    "ĠSto": 3244,
    "Ġunam": 3245,
    "Ġobl": 3246,
    "Ġscripsi": 3247,
    "Ġrepet": 3248,
    "Ã¦c": 3249,
    "Ġfidei": 3250,
    "Ġcirciter": 3251,
    "Ġbeatae": 3252,
    "Ġdenique": 3253,
    "Ġbrev": 3254,
    "Ġiucund": 3255,
    "pp": 3256,
    "Ġque": 3257,
    "ĠSam": 3258,
    "Ġillae": 3259,
    "Ġgentes": 3260,
    "Ġtuas": 3261,
    "âĢľ": 3262,
    "Ġpatet": 3263,
    "Ġdefend": 3264,
    "Ġultra": 3265,
    "Ġscientia": 3266,
    "Ġcupiditate": 3267,
    "ÏĦ": 3268,
    "Ġx": 3269,
    "err": 3270,
    "ines": 3271,
    "emur": 3272,
    "ĠSim": 3273,
    "obus": 3274,
    "Ġipsos": 3275,
    "ioribus": 3276,
    "Ġpraesentium": 3277,
    "Ġservus": 3278,
    "Ġeget": 3279,
    "Ġimperator": 3280,
    "Ġabsol": 3281,
    "Ġvirtutis": 3282,
    "Ġfructum": 3283,
    "hi": 3284,
    "Ġrevert": 3285,
    "ota": 3286,
    "Ġvenerunt": 3287,
    "Ġdeduc": 3288,
    "Ġdelectus": 3289,
    "Ġfides": 3290,
    "Ġdoctr": 3291,
    "Ġaperiam": 3292,
    "Ġspecies": 3293,
    "ĠMaii": 3294,
    "ĠSancti": 3295,
    "Ġvehem": 3296,
    "IV": 3297,
    "Ñı": 3298,
    "Ġfiunt": 3299,
    "ote": 3300,
    "Ġconstr": 3301,
    "issimo": 3302,
    "Ġobi": 3303,
    "Ġnullam": 3304,
    "Ġparticip": 3305,
    "Ġiustitia": 3306,
    "Ġsuspic": 3307,
    "Ġexplicabo": 3308,
    "Ita": 3309,
    "mis": 3310,
    "su": 3311,
    "uus": 3312,
    "Ġort": 3313,
    "Ġpron": 3314,
    "olis": 3315,
    "ella": 3316,
    "ressi": 3317,
    "ĠRomana": 3318,
    "Ġfratrem": 3319,
    "ĠMart": 3320,
    "Ġodit": 3321,
    "Ġquanto": 3322,
    "Ġadduc": 3323,
    "Ġadversus": 3324,
    "Ġmiseric": 3325,
    "tuor": 3326,
    "åİ¿": 3327,
    "38": 3328,
    "our": 3329,
    "Ġsil": 3330,
    "Ġsomn": 3331,
    "itor": 3332,
    "Ġcult": 3333,
    "icula": 3334,
    "utis": 3335,
    "omm": 3336,
    "Ġhor": 3337,
    "Ġsedes": 3338,
    "Ġcad": 3339,
    "Ġcommend": 3340,
    "Ġappar": 3341,
    "Ġactus": 3342,
    "ĠAthen": 3343,
    "Ġlitterae": 3344,
    "Ġsapientiae": 3345,
    "ĠOmnes": 3346,
    "Ġproficisc": 3347,
    "atim": 3348,
    "Ġiuv": 3349,
    "abantur": 3350,
    "ĠPol": 3351,
    "ĠPro": 3352,
    "Ġprohib": 3353,
    "Ġeaque": 3354,
    "Ġproport": 3355,
    "Ġusum": 3356,
    "Ġmorte": 3357,
    "Ġtotius": 3358,
    "Ġpublicam": 3359,
    "Ġadiuv": 3360,
    "Ġdemonst": 3361,
    "circ": 3362,
    "uas": 3363,
    "uimus": 3364,
    "à«": 3365,
    "eribus": 3366,
    "itium": 3367,
    "onae": 3368,
    "liv": 3369,
    "ĠRe": 3370,
    "Ġlegit": 3371,
    "alium": 3372,
    "Ġrecus": 3373,
    "Ġnocte": 3374,
    "Ġobserv": 3375,
    "Ġmelior": 3376,
    "uisset": 3377,
    "ä¸": 3378,
    "Ġexter": 3379,
    "ĠEs": 3380,
    "ĠIt": 3381,
    "ellum": 3382,
    "ubern": 3383,
    "Ġdomi": 3384,
    "Ġmoribus": 3385,
    "05": 3386,
    "VI": 3387,
    "Ã¢": 3388,
    "Ġprorsus": 3389,
    "Quam": 3390,
    "ĠLe": 3391,
    "ertum": 3392,
    "ertur": 3393,
    "âĢī": 3394,
    "Ġinterfic": 3395,
    "Ġleges": 3396,
    "Ġannorum": 3397,
    "Ġcommunia": 3398,
    "iosam": 3399,
    "Ġaltera": 3400,
    "Ġsalutem": 3401,
    "46": 3402,
    "Ġedit": 3403,
    "ites": 3404,
    "ater": 3405,
    "ida": 3406,
    "Ġpraeterea": 3407,
    "ĠRes": 3408,
    "ĠTur": 3409,
    "Ġfilia": 3410,
    "Ġdiximus": 3411,
    "Ġantep": 3412,
    "Ġ36": 3413,
    "Ġsangu": 3414,
    "Ġlitterarum": 3415,
    "Ġvestra": 3416,
    "Ġsensu": 3417,
    "Ġmutationem": 3418,
    "Ġappellatur": 3419,
    "Ġprocessus": 3420,
    "Ġmunicip": 3421,
    "ĠChristus": 3422,
    "Ġsaepius": 3423,
    "Ġloqueb": 3424,
    "Ġom": 3425,
    "ipp": 3426,
    "Ġpraetor": 3427,
    "Ġillic": 3428,
    "ĠPot": 3429,
    "ĠNost": 3430,
    "Ġconspectu": 3431,
    "essor": 3432,
    "Ġnostrae": 3433,
    "Ġoculos": 3434,
    "Ġimpet": 3435,
    "Ġgenera": 3436,
    "Ġistud": 3437,
    "Ġmalo": 3438,
    "Ġcomprehend": 3439,
    "Ġservi": 3440,
    "Ġrecord": 3441,
    "Ġsubstantiae": 3442,
    "ĠCons": 3443,
    "ĠIlle": 3444,
    "ci": 3445,
    "Ġcess": 3446,
    "Ġmy": 3447,
    "uras": 3448,
    "Ġhorum": 3449,
    "ĠPis": 3450,
    "Ġvelle": 3451,
    "Ġmortui": 3452,
    "ĠUbi": 3453,
    "Ġdebent": 3454,
    "Ġvocabul": 3455,
    "Ġperspic": 3456,
    "Ġreliqua": 3457,
    "Ð¸Ð": 3458,
    "Ġsubstantiam": 3459,
    "piciatis": 3460,
    "eor": 3461,
    "uitur": 3462,
    "ximus": 3463,
    "Ġov": 3464,
    "erius": 3465,
    "Ġaeg": 3466,
    "inibus": 3467,
    "Ġnem": 3468,
    "uro": 3469,
    "Ġconp": 3470,
    "ĠAcc": 3471,
    "aecati": 3472,
    "Ġ23": 3473,
    "ustra": 3474,
    "Ġbonus": 3475,
    "Ġregum": 3476,
    "Ġdeleniti": 3477,
    "Ġconsequuntur": 3478,
    "Ġducimus": 3479,
    "Ġfalsum": 3480,
    "Ġtribun": 3481,
    "Ġuniversa": 3482,
    "Ġviginti": 3483,
    "Ġsacerdot": 3484,
    "ĀĀ": 3485,
    "Ġdy": 3486,
    "Ġmente": 3487,
    "ices": 3488,
    "abilia": 3489,
    "ĠCol": 3490,
    "Ġperitus": 3491,
    "ĠPers": 3492,
    "ĠMihi": 3493,
    "Ġconsc": 3494,
    "Ġplerumque": 3495,
    "Ġsumpt": 3496,
    "Ġorn": 3497,
    "Ġtract": 3498,
    "Ġamici": 3499,
    "Ġconclus": 3500,
    "retur": 3501,
    "Ġaqua": 3502,
    "au": 3503,
    "Ġur": 3504,
    "Ġsis": 3505,
    "itter": 3506,
    "Ġindign": 3507,
    "olus": 3508,
    "ĠScip": 3509,
    "Ġ22": 3510,
    "ĠHel": 3511,
    "Ġquaeris": 3512,
    "Ġanimum": 3513,
    "Ġduod": 3514,
    "Ġduas": 3515,
    "ittere": 3516,
    "Ġpueri": 3517,
    "diu": 3518,
    "Ġmagister": 3519,
    "ĠRomanus": 3520,
    "Ġnovum": 3521,
    "ermin": 3522,
    "ĠItaliae": 3523,
    "Ġepiscopalis": 3524,
    "ierunt": 3525,
    "rig": 3526,
    "Ġz": 3527,
    "Ġsoli": 3528,
    "Ġsese": 3529,
    "ursum": 3530,
    "Ġconfic": 3531,
    "Ġillorum": 3532,
    "Ġhabeb": 3533,
    "ĠRhod": 3534,
    "ĠVal": 3535,
    "Ġaccept": 3536,
    "Ġlegis": 3537,
    "Ġmultae": 3538,
    "Ġ39": 3539,
    "Ġ186": 3540,
    "Ġelectus": 3541,
    "Ġpraecepit": 3542,
    "Ġmemin": 3543,
    "Ġfuga": 3544,
    "Ġfactionis": 3545,
    "Ġinventore": 3546,
    "ria": 3547,
    "ĠQ": 3548,
    "ind": 3549,
    "Ġcec": 3550,
    "Ġturb": 3551,
    "utio": 3552,
    "olae": 3553,
    "Ġcondit": 3554,
    "ĠSec": 3555,
    "Ġsepar": 3556,
    "Ġconserv": 3557,
    "Ġmagno": 3558,
    "ientia": 3559,
    "Ġlegibus": 3560,
    "issimos": 3561,
    "Ġlaborum": 3562,
    "Ġnovi": 3563,
    "Ġpeccatum": 3564,
    "',": 3565,
    "Ar": 3566,
    "Omn": 3567,
    "men": 3568,
    "atore": 3569,
    "Ġcot": 3570,
    "Ġnub": 3571,
    "Ġii": 3572,
    "Ġire": 3573,
    "ĠMirum": 3574,
    "Ġvidet": 3575,
    "Ġuir": 3576,
    "Ġminime": 3577,
    "Ġabsc": 3578,
    "Ġbello": 3579,
    "Ġdiscipuli": 3580,
    "Ġaccusamus": 3581,
    "Ġadminist": 3582,
    "ĠAlp": 3583,
    "Ġmotus": 3584,
    "ĠSpiritus": 3585,
    "Ġquattuor": 3586,
    "Lorem": 3587,
    "Ã¨": 3588,
    "ÏĤ": 3589,
    "emor": 3590,
    "Ġmont": 3591,
    "Ġvox": 3592,
    "utionem": 3593,
    "entr": 3594,
    "erest": 3595,
    "ĠPontific": 3596,
    "Ġvides": 3597,
    "Ġuerbum": 3598,
    "Ġproeli": 3599,
    "Ġagitur": 3600,
    "Ġnominis": 3601,
    "Ġmemb": 3602,
    "Ġjudic": 3603,
    "Ġalterius": 3604,
    "Ġvictor": 3605,
    "Ġpersonae": 3606,
    "Ġpaene": 3607,
    "Ġterrarum": 3608,
    "Ġglad": 3609,
    "49": 3610,
    "Item": 3611,
    "eum": 3612,
    "rius": 3613,
    "Ġos": 3614,
    "Ġty": 3615,
    "eth": 3616,
    "Ġexig": 3617,
    "Ġpercip": 3618,
    "Ġpraef": 3619,
    "Ġpraepos": 3620,
    "Ġinteg": 3621,
    "deo": 3622,
    "Ġimped": 3623,
    "Ġagit": 3624,
    "Ġvocatur": 3625,
    "ĠâĢ¢": 3626,
    "Ġoccult": 3627,
    "Ġaccipere": 3628,
    "Ġmedio": 3629,
    "Ġpacem": 3630,
    "Ġproprie": 3631,
    "ade": 3632,
    "Ġdur": 3633,
    "Ġmentem": 3634,
    "Ġiuven": 3635,
    "Ġretin": 3636,
    "ĠSuper": 3637,
    "issa": 3638,
    "Ġuen": 3639,
    "Ġpatri": 3640,
    "ĠInfer": 3641,
    "Ġnullus": 3642,
    "Ġmoll": 3643,
    "Ġcertum": 3644,
    "Ġaetate": 3645,
    "âĢĿ.": 3646,
    "Ġpaenit": 3647,
    "Ġpereg": 3648,
    "ĠCatholicae": 3649,
    "circo": 3650,
    "da": 3651,
    "ueris": 3652,
    "art": 3653,
    "Ġdig": 3654,
    "Ġamore": 3655,
    "Ġaliquot": 3656,
    "ientem": 3657,
    "Ġ37": 3658,
    "Ġspiritus": 3659,
    "ĠÂ»Â»": 3660,
    "Ġassumenda": 3661,
    "Ġmisericord": 3662,
    "47": 3663,
    "natur": 3664,
    "erere": 3665,
    "Ġnoli": 3666,
    "Ġline": 3667,
    "Ġperfic": 3668,
    "ĠNo": 3669,
    "Ġfuerint": 3670,
    "Ġspes": 3671,
    "Ġvoluptatum": 3672,
    "Ġdecre": 3673,
    "Ġdedi": 3674,
    "Ġoccas": 3675,
    "Ġcaeli": 3676,
    "Ġcogitare": 3677,
    "Ġlectorum": 3678,
    "ĠAliquam": 3679,
    "Ġfructus": 3680,
    "Ġimago": 3681,
    ".âĢĿ": 3682,
    "pl": 3683,
    "erta": 3684,
    "Ġquarum": 3685,
    "Ġinqu": 3686,
    "Ġtit": 3687,
    "eles": 3688,
    "Ġconvert": 3689,
    "Ġuoc": 3690,
    "ĠRuss": 3691,
    "Ġimagin": 3692,
    "Ġistis": 3693,
    "dixit": 3694,
    "icumque": 3695,
    "Ġactio": 3696,
    "Ġfalsa": 3697,
    "namicus": 3698,
    "iginta": 3699,
    "Ġsita": 3700,
    "Ġquum": 3701,
    "Ġdo": 3702,
    "ial": 3703,
    "Ġgubern": 3704,
    "ensio": 3705,
    "ellae": 3706,
    "Ġvolumus": 3707,
    "Ġviro": 3708,
    "Ġmagnus": 3709,
    "Ġverbo": 3710,
    "Ġscribam": 3711,
    "ĠIoannes": 3712,
    "Ġartific": 3713,
    "Ġadipiscing": 3714,
    "ĠVolupt": 3715,
    "vent": 3716,
    "Ġuit": 3717,
    "atorem": 3718,
    "ona": 3719,
    "Ġmilia": 3720,
    "utem": 3721,
    "aculum": 3722,
    "abor": 3723,
    "Ġcoep": 3724,
    "Ġamor": 3725,
    "ĠFeb": 3726,
    "Ġtempor": 3727,
    "ĠGen": 3728,
    "Ġfiliorum": 3729,
    "Ġinterdum": 3730,
    "Ġcivitates": 3731,
    "Ġnotae": 3732,
    "Ġepiscopus": 3733,
    "Ġtertio": 3734,
    "ĠZen": 3735,
    "Ġsustin": 3736,
    "Ġagnosc": 3737,
    "ga": 3738,
    "ppe": 3739,
    "sent": 3740,
    "tae": 3741,
    "vol": 3742,
    "Ġcern": 3743,
    "Ġmerit": 3744,
    "Ġhae": 3745,
    "ibulum": 3746,
    "Ġadeo": 3747,
    "ĠItem": 3748,
    "Ġdierum": 3749,
    "Ġfacie": 3750,
    "ratum": 3751,
    "ĠLeg": 3752,
    "ĠFilius": 3753,
    "Ġoratione": 3754,
    "Ġveni": 3755,
    "Ġloquuntur": 3756,
    "Ġcommunis": 3757,
    "Ġdelic": 3758,
    "ĠÐ¿": 3759,
    "Ġinvicem": 3760,
    "Ġpatria": 3761,
    "Ġcondita": 3762,
    "Ġconsuetudium": 3763,
    "Mar": 3764,
    "min": 3765,
    "nus": 3766,
    "nae": 3767,
    "Ïĥ": 3768,
    "eras": 3769,
    "arn": 3770,
    "Ġsuff": 3771,
    "ĠIst": 3772,
    "ĠDem": 3773,
    "Ġdicatur": 3774,
    "ectae": 3775,
    "ivum": 3776,
    "ĠMult": 3777,
    "Ġquaereb": 3778,
    "Ġcontemp": 3779,
    "Ġminister": 3780,
    "issimis": 3781,
    "Ġmanibus": 3782,
    "Ġsimilis": 3783,
    "Ġtriginta": 3784,
    "Ġmaximum": 3785,
    "Ġfiduc": 3786,
    "ĠGraeci": 3787,
    "Ġvoluntas": 3788,
    "Ġtabu": 3789,
    "Ġgloria": 3790,
    "Ġsignificat": 3791,
    "Ġsermonem": 3792,
    "Ġcolleg": 3793,
    "Ġseptem": 3794,
    "ĠPetrum": 3795,
    "Ġadipisci": 3796,
    "Ġinterpret": 3797,
    "Ġdynamicus": 3798,
    "Est": 3799,
    "Ġore": 3800,
    "isus": 3801,
    "Ġhas": 3802,
    "Ġreli": 3803,
    "Ġconstat": 3804,
    "ĠCuius": 3805,
    "Ġquippe": 3806,
    "Ġvidemus": 3807,
    "Ġub": 3808,
    "Ġ21": 3809,
    "ĠBo": 3810,
    "Ġpublicus": 3811,
    "Ġcarn": 3812,
    "Ġplacuit": 3813,
    "Ġperspiciatis": 3814,
    "Ġconvenit": 3815,
    "Ġblanditiis": 3816,
    "Prae": 3817,
    "Ã³": 3818,
    "Ġsod": 3819,
    "Ġpisc": 3820,
    "imentum": 3821,
    "ĠIII": 3822,
    "raph": 3823,
    "ĠQuint": 3824,
    "ĠMan": 3825,
    "Ġlibri": 3826,
    "Ġspem": 3827,
    "Ġvoce": 3828,
    "Ġiudicia": 3829,
    "Ġdiscess": 3830,
    "Ġconcup": 3831,
    "ĠComm": 3832,
    "Ġhonor": 3833,
    "ĠAmerica": 3834,
    "Ġbeatum": 3835,
    "ĠCaesaris": 3836,
    "laritas": 3837,
    "Ġfortuna": 3838,
    "quaquam": 3839,
    "Hic": 3840,
    "Post": 3841,
    "auc": 3842,
    "Ġquoc": 3843,
    "atos": 3844,
    "Ġcentum": 3845,
    "Ġdissim": 3846,
    "anquam": 3847,
    "abiles": 3848,
    "rata": 3849,
    "ectura": 3850,
    "ĠMet": 3851,
    "ertus": 3852,
    "Ġdolorum": 3853,
    "Ġvoluptates": 3854,
    "Ġduos": 3855,
    "Ġcapit": 3856,
    "Ġ187": 3857,
    "Ġoccid": 3858,
    "103": 3859,
    "Ġsaeculum": 3860,
    "Ġordine": 3861,
    "Ġquaestio": 3862,
    "Ġalbum": 3863,
    "'.": 3864,
    "86": 3865,
    "ain": 3866,
    "ÑĮ": 3867,
    "isit": 3868,
    "liam": 3869,
    "Ġquoddam": 3870,
    "Ġnihilo": 3871,
    "ĠVel": 3872,
    "Ġloci": 3873,
    "Ġoblig": 3874,
    "admodum": 3875,
    "Ġduobus": 3876,
    "Ġpeculi": 3877,
    "Ġdeclar": 3878,
    "Ġoccident": 3879,
    "Ġinvid": 3880,
    "Ġdomino": 3881,
    "Anno": 3882,
    "asti": 3883,
    "Ġadversum": 3884,
    "Ġparva": 3885,
    "Ġdamn": 3886,
    "Ġent": 3887,
    "obiscum": 3888,
    "Ġgreg": 3889,
    "Ġhabetur": 3890,
    "Ġabund": 3891,
    "Ġexpet": 3892,
    "Ġtoto": 3893,
    "Ġfratribus": 3894,
    "Ġordinem": 3895,
    "Ġpraecipue": 3896,
    "Ġfamiliae": 3897,
    "Ġyou": 3898,
    "Ġarbitror": 3899,
    "Ġrepellendus": 3900,
    "Ġadulesc": 3901,
    "Ġdistinctio": 3902,
    "Datum": 3903,
    "cta": 3904,
    "rit": 3905,
    "Ġá": 3906,
    "Ġdap": 3907,
    "Ġinitio": 3908,
    "rep": 3909,
    "Ġadmon": 3910,
    "Ġscimus": 3911,
    "Ġabi": 3912,
    "Ġquaero": 3913,
    "ĠVir": 3914,
    "Ġaccess": 3915,
    "Ġmultos": 3916,
    "Ġimprob": 3917,
    "Ġamicus": 3918,
    "Ġvivit": 3919,
    "Ġmatrem": 3920,
    "Ġvideantur": 3921,
    "Ġvisum": 3922,
    "Ġvestrum": 3923,
    "Ġabsque": 3924,
    "Ġdignum": 3925,
    "Ġorientalis": 3926,
    "Ġdapibus": 3927,
    "41": 3928,
    "45": 3929,
    "?\"": 3930,
    "bat": 3931,
    "Ġ{": 3932,
    "icos": 3933,
    "Ġtale": 3934,
    "Ġiub": 3935,
    "Ġfing": 3936,
    "lium": 3937,
    "Ġhodi": 3938,
    "Ġrequir": 3939,
    "ĠSequ": 3940,
    "Ġdicentes": 3941,
    "ravit": 3942,
    "ientes": 3943,
    "Ġdixitque": 3944,
    "Ġintellectus": 3945,
    "iose": 3946,
    "Ġinfer": 3947,
    "Ġcredo": 3948,
    "ariant": 3949,
    "Ġitin": 3950,
    "Nihil": 3951,
    "ĠÑģ": 3952,
    "ones": 3953,
    "onius": 3954,
    "Ġventur": 3955,
    "ĠAlex": 3956,
    "ĠSy": 3957,
    "Ġfaciet": 3958,
    "ĠPy": 3959,
    "Ġpossis": 3960,
    "Ġuer": 3961,
    "Ġanimad": 3962,
    "Ġsponte": 3963,
    "Ġvoluptatibus": 3964,
    "eptus": 3965,
    "Ġnecessaria": 3966,
    "Ġlucem": 3967,
    "Ġpulchra": 3968,
    "88": 3969,
    "Sa": 3970,
    "Ã«": 3971,
    "Ïģ": 3972,
    "onus": 3973,
    "econom": 3974,
    "Ġlap": 3975,
    "ille": 3976,
    "anti": 3977,
    "Ġsuav": 3978,
    "ĠIust": 3979,
    "Ġfaceret": 3980,
    "ultus": 3981,
    "Ġistam": 3982,
    "Ġtrist": 3983,
    "Ġappet": 3984,
    "Ġoccurr": 3985,
    "Ġpraeced": 3986,
    "Ġinsip": 3987,
    "Ġuxore": 3988,
    "Ġexercitus": 3989,
    "Ġsapientiam": 3990,
    "Ġstudio": 3991,
    "Ġullo": 3992,
    "Ġfactae": 3993,
    "Ġsermone": 3994,
    "Ġdetermin": 3995,
    "trib": 3996,
    "Ġlaboriosam": 3997,
    "Ġhosp": 3998,
    "--": 3999,
    "VIII": 4000,
    "ogn": 4001,
    "Ġele": 4002,
    "Ġmom": 4003,
    "Ġinuen": 4004,
    "Ġhuc": 4005,
    "Ġheres": 4006,
    "arb": 4007,
    "anam": 4008,
    "ibilis": 4009,
    "ensa": 4010,
    "Ġhabens": 4011,
    "ĠNumquam": 4012,
    "undem": 4013,
    "Ġamicis": 4014,
    "Ġdivid": 4015,
    "iosus": 4016,
    "Ġoppos": 4017,
    "Ġinvenire": 4018,
    "Ġsancti": 4019,
    "Ġspecie": 4020,
    "Ġquanta": 4021,
    "Ġpropriet": 4022,
    "Ġnobiscum": 4023,
    "Ġcasu": 4024,
    "Ġuolunt": 4025,
    "Ġcunctis": 4026,
    "ĠPrimum": 4027,
    "ĠFebru": 4028,
    "lina": 4029,
    "rud": 4030,
    "Ġare": 4031,
    "inarum": 4032,
    "Ġqualis": 4033,
    "Ġder": 4034,
    "utae": 4035,
    "rect": 4036,
    "iac": 4037,
    "abuntur": 4038,
    "ĠDuo": 4039,
    "ĠMich": 4040,
    "Ġnequaquam": 4041,
    "Ġconsili": 4042,
    "overs": 4043,
    "Ġpati": 4044,
    "Ġall": 4045,
    "Ġnumerus": 4046,
    "Ġ35": 4047,
    "Ġimposs": 4048,
    "Ġsimile": 4049,
    "Ġistum": 4050,
    "Ġamicum": 4051,
    "Ġelem": 4052,
    "Ġoptimum": 4053,
    "ĠProp": 4054,
    "Ġpatribus": 4055,
    "Ġsermonum": 4056,
    "Ġeduc": 4057,
    "Ġhabeant": 4058,
    "ĠIllud": 4059,
    "Ġsimiliter": 4060,
    "eunt": 4061,
    "nunt": 4062,
    "rot": 4063,
    "Ġå": 4064,
    "indic": 4065,
    "Ġpres": 4066,
    "arch": 4067,
    "anos": 4068,
    "Ġexhib": 4069,
    "iliae": 4070,
    "Ġquoad": 4071,
    "ĠTer": 4072,
    "ĠVerum": 4073,
    "erte": 4074,
    "Ġfuerat": 4075,
    "incidunt": 4076,
    "Ġdixisti": 4077,
    "aph": 4078,
    "Ġsimili": 4079,
    "Ġdebeat": 4080,
    "Ġappare": 4081,
    "ĠâĢĶ": 4082,
    "Ġ40": 4083,
    "Ġpaulo": 4084,
    "Ġpatriam": 4085,
    "ĠApr": 4086,
    "Ġcogitatione": 4087,
    "ĠEuropae": 4088,
    ".Â§": 4089,
    "??": 4090,
    "rod": 4091,
    "Ã®": 4092,
    "Îµ": 4093,
    "Ġauct": 4094,
    "Ġaeque": 4095,
    "Ġfe": 4096,
    "ulas": 4097,
    "ĠPic": 4098,
    "ĠNemo": 4099,
    "Ġquidquam": 4100,
    "Ġveritate": 4101,
    "Ġuerum": 4102,
    "Ġidcirco": 4103,
    "Ġamare": 4104,
    "Ġinterret": 4105,
    "ĠOct": 4106,
    "Ġnumerum": 4107,
    "Ġaudit": 4108,
    "sumus": 4109,
    "Ġgratiae": 4110,
    "Ġsequuntur": 4111,
    "Ġcognoscere": 4112,
    "ĠÃ¥": 4113,
    "Ġepistulam": 4114,
    "Ġcongreg": 4115,
    "ĠIunii": 4116,
    "200": 4117,
    "iebam": 4118,
    "Ġnatum": 4119,
    "Ġmalis": 4120,
    "aced": 4121,
    "Ġhaberet": 4122,
    "Ġarb": 4123,
    "ientiam": 4124,
    "Ġolim": 4125,
    "Ġquemadmodum": 4126,
    "Ġcivitatibus": 4127,
    "Ġ189": 4128,
    "Ġnotum": 4129,
    "Ġexcell": 4130,
    "ĠOmnis": 4131,
    "Ġdilect": 4132,
    "ĠLutetiae": 4133,
    "Ġmollitia": 4134,
    "plex": 4135,
    "Ġvobiscum": 4136,
    "Ġtincidunt": 4137,
    "lio": 4138,
    "illim": 4139,
    "Ġdeorum": 4140,
    "Ġaliorum": 4141,
    "ebo": 4142,
    "issum": 4143,
    "Ġvidebatur": 4144,
    "Ġrursus": 4145,
    "ĠVale": 4146,
    "ĠIns": 4147,
    "Ġdebitis": 4148,
    "Ġeloqu": 4149,
    "Ġcontrovers": 4150,
    "Ġauctoritate": 4151,
    "Ġmotum": 4152,
    "Ġpollic": 4153,
    "Ġarchit": 4154,
    "Ġvehementer": 4155,
    "Â«": 4156,
    "Ġquale": 4157,
    "Ġcuncta": 4158,
    "Ġmare": 4159,
    "arg": 4160,
    "idum": 4161,
    "ĠSu": 4162,
    "Ġpraeb": 4163,
    "Ġbapt": 4164,
    "ĠQuem": 4165,
    "ĠTro": 4166,
    "Ġpleb": 4167,
    "Ġpropterea": 4168,
    "Ġlibris": 4169,
    "ĠRomam": 4170,
    "avitque": 4171,
    "Ġtabulis": 4172,
    "Ġgratias": 4173,
    "Ġnova": 4174,
    "Ġmolestias": 4175,
    "ĠSanctum": 4176,
    "Ġquicquid": 4177,
    "ĠChristo": 4178,
    "Ġpre": 4179,
    "Ġmore": 4180,
    "Ġprot": 4181,
    "abilem": 4182,
    "ĠEb": 4183,
    "estas": 4184,
    "Ġveritas": 4185,
    "ellus": 4186,
    "Ġsolet": 4187,
    "Ġacceper": 4188,
    "Ġmodus": 4189,
    "Ġstip": 4190,
    "atoris": 4191,
    "Ġdoloribus": 4192,
    "Ġcausis": 4193,
    "ĠâĢ¦": 4194,
    "Ġ180": 4195,
    "Ġservum": 4196,
    "Ġpraecept": 4197,
    "Ġprincipes": 4198,
    "Ġsapiente": 4199,
    "uctio": 4200,
    "Ġtanto": 4201,
    "Ġmunus": 4202,
    "Ġscientiae": 4203,
    "Ġpriusquam": 4204,
    "Ġspiritum": 4205,
    "met": 4206,
    "usquam": 4207,
    "Ġcathol": 4208,
    "ors": 4209,
    "Ġfab": 4210,
    "Ġadven": 4211,
    "abili": 4212,
    "Ġconstant": 4213,
    "ĠNomen": 4214,
    "Ġvidi": 4215,
    "Ġidque": 4216,
    "Ġparia": 4217,
    "ĠTemp": 4218,
    "Ġinterest": 4219,
    "Ġinterf": 4220,
    "Ġliberi": 4221,
    "Ġ33": 4222,
    "Ġvitium": 4223,
    "Ġtabulae": 4224,
    "Ġcapite": 4225,
    "Ġpopul": 4226,
    "iosa": 4227,
    "Ġfratre": 4228,
    "inister": 4229,
    "Ġeffectum": 4230,
    "Ġrepellat": 4231,
    "Ġlumen": 4232,
    "modo": 4233,
    "Ġlig": 4234,
    "Ġequidem": 4235,
    "Ġquer": 4236,
    "icta": 4237,
    "une": 4238,
    "edere": 4239,
    "Ġpositum": 4240,
    "Ġsolo": 4241,
    "Ġrepudi": 4242,
    "ĠItalia": 4243,
    "Ġinvenitur": 4244,
    "Ġquaerimus": 4245,
    "Ġpoena": 4246,
    "Ġmemoriae": 4247,
    "Ġcorrupti": 4248,
    "irat": 4249,
    "å¸": 4250,
    "Ġvex": 4251,
    "arunt": 4252,
    "ulerunt": 4253,
    "Ġador": 4254,
    "antis": 4255,
    "ĠSch": 4256,
    "ĠDixit": 4257,
    "Ġperc": 4258,
    "ĠQuoniam": 4259,
    "Ġprog": 4260,
    "Ġorationem": 4261,
    "Ġlibrum": 4262,
    "Ġlibenter": 4263,
    "Ġard": 4264,
    "ĠInc": 4265,
    "Ġmultip": 4266,
    "Ġprimis": 4267,
    "Ġquemquam": 4268,
    "ponitur": 4269,
    "Ġsemen": 4270,
    "Ġoccaecati": 4271,
    "Ġactionem": 4272,
    "Ġsapiens": 4273,
    "Ġinveni": 4274,
    "Ġvirtutem": 4275,
    "ĠMarc": 4276,
    "Ġsubiecto": 4277,
    "ĠAlb": 4278,
    "Ġexemplum": 4279,
    "ĠChristum": 4280,
    "Ġmissus": 4281,
    "ĠAcadem": 4282,
    "Ġparentes": 4283,
    "Ġreliquit": 4284,
    "Mont": 4285,
    "iem": 4286,
    "Ġedic": 4287,
    "inas": 4288,
    "Ġprec": 4289,
    "ialis": 4290,
    "ela": 4291,
    "Ġdefic": 4292,
    "Ġsuorum": 4293,
    "ĠCont": 4294,
    "ecti": 4295,
    "ĠQuomodo": 4296,
    "enses": 4297,
    "ĠMat": 4298,
    "isses": 4299,
    "Ġrom": 4300,
    "ello": 4301,
    "ĠHab": 4302,
    "ĠFort": 4303,
    "ĠTar": 4304,
    "fectum": 4305,
    "fectus": 4306,
    "Ġrecta": 4307,
    "Ġaetatis": 4308,
    "asset": 4309,
    "Ġdiligenter": 4310,
    "Ġfaciendum": 4311,
    "Ġregni": 4312,
    "Ġaeternum": 4313,
    "ioecesis": 4314,
    "Ġeveniet": 4315,
    "ĠNulla": 4316,
    "ĠCicer": 4317,
    "Ġoriunda": 4318,
    "ĠAlexand": 4319,
    "43": 4320,
    "IX": 4321,
    "mi": 4322,
    "sec": 4323,
    "Ġinp": 4324,
    "arc": 4325,
    "ullius": 4326,
    "illum": 4327,
    "otus": 4328,
    "Ġdicamus": 4329,
    "rav": 4330,
    "Ġviderunt": 4331,
    "Ġaccidit": 4332,
    "Ġpropon": 4333,
    "ĠBib": 4334,
    "Ġdixerit": 4335,
    "Ġfecisse": 4336,
    "Ġloquar": 4337,
    "Ġimpl": 4338,
    "Ġcommuni": 4339,
    "Ġiudicem": 4340,
    "Ġdivina": 4341,
    "ercule": 4342,
    "Ġdominum": 4343,
    "Ġbeata": 4344,
    "Ġoppido": 4345,
    "ĠIesu": 4346,
    "XXX": 4347,
    "Ġpericulo": 4348,
    "Ġpropositum": 4349,
    "Ġsyll": 4350,
    "Ġimpossibile": 4351,
    "100": 4352,
    "59": 4353,
    "IT": 4354,
    "Int": 4355,
    "Iac": 4356,
    "by": 4357,
    "ogo": 4358,
    "ry": 4359,
    "Ã¶": 4360,
    "Ġ)": 4361,
    "ĠY": 4362,
    "Ġqual": 4363,
    "Ġnusquam": 4364,
    "Ġvindic": 4365,
    "omet": 4366,
    "ĠSol": 4367,
    "ĠCn": 4368,
    "Ġbelli": 4369,
    "Ġpossent": 4370,
    "ĠLig": 4371,
    "Ġcub": 4372,
    "episcop": 4373,
    "ientibus": 4374,
    "Ġgenuit": 4375,
    "Ġamico": 4376,
    "Ġdiscere": 4377,
    "Ġfruct": 4378,
    "illam": 4379,
    "Ġdiligit": 4380,
    "Ġpertinere": 4381,
    "ĠFoeder": 4382,
    "Ġpoet": 4383,
    "ĠXX": 4384,
    "ĠAegypti": 4385,
    "Ġlign": 4386,
    "ĠDecembris": 4387,
    "ĠOctob": 4388,
    "Ġâ": 4389,
    "Ġsat": 4390,
    "aepe": 4391,
    "Ġmense": 4392,
    "Ġaddit": 4393,
    "agina": 4394,
    "Ġdii": 4395,
    "atura": 4396,
    "irem": 4397,
    "Ġscis": 4398,
    "Ġabiit": 4399,
    "Ġamant": 4400,
    "Ġdixisset": 4401,
    "Ġscribit": 4402,
    "Ġmors": 4403,
    "ĠArch": 4404,
    "Ġsanctum": 4405,
    "Ġsaeculi": 4406,
    "Ġpertinent": 4407,
    "Ġadmitt": 4408,
    "Ġdispos": 4409,
    "ĠKal": 4410,
    "Ġspero": 4411,
    "Ġcrud": 4412,
    "ĠĠĠĠĠĠĠĠĠĠĠĠĠĠĠĠĠĠĠĠĠĠĠĠĠĠĠĠĠĠĠĠ": 4413,
    "Ġquadr": 4414,
    "Ġexpedita": 4415,
    "ĠItal": 4416,
    "oen": 4417,
    "usque": 4418,
    "Ġdat": 4419,
    "Ġmend": 4420,
    "Ġinius": 4421,
    "Ġinsign": 4422,
    "Ġvulg": 4423,
    "ariam": 4424,
    "ides": 4425,
    "entio": 4426,
    "ĠSem": 4427,
    "ĠNos": 4428,
    "undo": 4429,
    "Ġerud": 4430,
    "Ġerga": 4431,
    "Ġamat": 4432,
    "ĠRep": 4433,
    "Ġconsist": 4434,
    "Ġliberis": 4435,
    "ĠOm": 4436,
    "Ġ38": 4437,
    "Ġcuiusquam": 4438,
    "ĠRoma": 4439,
    "Ġconfus": 4440,
    "Ġpraeteritum": 4441,
    "Ġprovident": 4442,
    "Ġnegleg": 4443,
    "Ġformae": 4444,
    "Ġjam": 4445,
    "ĠGraeciae": 4446,
    "ĠAmeric": 4447,
    "Ġcontraria": 4448,
    "Ġoperibus": 4449,
    "Ġmirum": 4450,
    "Ġliceat": 4451,
    "Ġprofectus": 4452,
    "Ġcreatura": 4453,
    "Ġdexter": 4454,
    "eorg": 4455,
    "Ġconcupisc": 4456,
    "Ġhodiern": 4457,
    "hem": 4458,
    "Ãª": 4459,
    "esimo": 4460,
    "acta": 4461,
    "elis": 4462,
    "ĠIbi": 4463,
    "Ġpoterat": 4464,
    "ĠMe": 4465,
    "Ġnef": 4466,
    "Ġquadam": 4467,
    "Ġ190": 4468,
    "ĠOb": 4469,
    "Ġoeconom": 4470,
    "ressa": 4471,
    "Ġtribus": 4472,
    "Ġsancta": 4473,
    "Ġamicos": 4474,
    "Ġamicitiam": 4475,
    "Ġcuique": 4476,
    "rammat": 4477,
    "Ġinfirm": 4478,
    "Ġpraecl": 4479,
    "Ġvisus": 4480,
    "ĠLatin": 4481,
    "ĠLatinam": 4482,
    "Ð¾Ð»": 4483,
    "Ġimperium": 4484,
    "Ġplurimum": 4485,
    "Ġlaudantium": 4486,
    "Ġaudivit": 4487,
    "Ġalienum": 4488,
    "Ġsuccess": 4489,
    "Ġauxilium": 4490,
    "ĠIpsum": 4491,
    "ĠUrbs": 4492,
    "42": 4493,
    "iepiscop": 4494,
    "var": 4495,
    "ï¼": 4496,
    "Ġ=": 4497,
    "erre": 4498,
    "Ġsort": 4499,
    "Ġdidic": 4500,
    "Ġinn": 4501,
    "ĠEv": 4502,
    "Ġperhib": 4503,
    "Ġpraepar": 4504,
    "Ġuis": 4505,
    "ĠTex": 4506,
    "Ġcommemor": 4507,
    "Ġrege": 4508,
    "Ġreges": 4509,
    "atoribus": 4510,
    "Ġmagnific": 4511,
    "Ġcompet": 4512,
    "Ġ2006": 4513,
    "Ġpraeclar": 4514,
    "Ġcaritas": 4515,
    "Ġsummo": 4516,
    "Ġsummam": 4517,
    "Ġintellegere": 4518,
    "Ġstudium": 4519,
    "Ġstatu": 4520,
    "Â».": 4521,
    "Ġferre": 4522,
    "Ġsecunda": 4523,
    "Ġdifficult": 4524,
    "erusalem": 4525,
    "Ġaspernatur": 4526,
    "ĠAlpibus": 4527,
    "lu": 4528,
    "Î»": 4529,
    "Ġpess": 4530,
    "Ġnimis": 4531,
    "Ġda": 4532,
    "Ġinm": 4533,
    "Ġviae": 4534,
    "Ġhora": 4535,
    "una": 4536,
    "Ġlaus": 4537,
    "Ġcondem": 4538,
    "Ġquamdiu": 4539,
    "estig": 4540,
    "Ġfacio": 4541,
    "ebas": 4542,
    "Ġvoluit": 4543,
    "Ġrespic": 4544,
    "Ġarm": 4545,
    "Ġsemel": 4546,
    "pex": 4547,
    "Ġdivitiae": 4548,
    "Ġapparet": 4549,
    "Ġconfit": 4550,
    "ĠÐ²": 4551,
    "Ġnamque": 4552,
    "Ġprinceps": 4553,
    "Ġ2016": 4554,
    "Ġgrad": 4555,
    "ĠJes": 4556,
    "Ġdoloremque": 4557,
    "Ġaccusantium": 4558,
    "Ġscientiam": 4559,
    "Ġpaucis": 4560,
    "Ġcognovit": 4561,
    "ĠFebruarii": 4562,
    "Al": 4563,
    "Ego": 4564,
    "sed": 4565,
    "Ãł": 4566,
    "Ġec": 4567,
    "Ġaer": 4568,
    "Ġpap": 4569,
    "Ġfinis": 4570,
    "imam": 4571,
    "Ġdeos": 4572,
    "alt": 4573,
    "ĠSit": 4574,
    "Ġdicas": 4575,
    "ĠQuibus": 4576,
    "Ġsciam": 4577,
    "Ġero": 4578,
    "Ġtemporum": 4579,
    "Ġesses": 4580,
    "Ġfiliam": 4581,
    "Ġduplic": 4582,
    "ponere": 4583,
    "ĠRomanum": 4584,
    "Ġfrig": 4585,
    "Ġingredi": 4586,
    "Ġexercitum": 4587,
    "Ġtradit": 4588,
    "Ġgloriae": 4589,
    "Ġmetu": 4590,
    "Ġalicui": 4591,
    "Ġpedes": 4592,
    "ĠSeptembris": 4593,
    "Ġpretium": 4594,
    "Ġnimium": 4595,
    "Ch": 4596,
    "Claritas": 4597,
    "Ġaurum": 4598,
    "ins": 4599,
    "Ġmisi": 4600,
    "orqu": 4601,
    "Ġvad": 4602,
    "Ġib": 4603,
    "lid": 4604,
    "Ġhinc": 4605,
    "anem": 4606,
    "ĠEl": 4607,
    "endas": 4608,
    "Ġfacias": 4609,
    "iturus": 4610,
    "ĠNorm": 4611,
    "Ġuerb": 4612,
    "Ġregno": 4613,
    "issimae": 4614,
    "Ġtrium": 4615,
    "Ġ45": 4616,
    "Ġ46": 4617,
    "Ġflag": 4618,
    "Ġperfectum": 4619,
    "Ġdonec": 4620,
    "Ġtertium": 4621,
    "Ġincipit": 4622,
    "Ġtestamentum": 4623,
    "Franc": 4624,
    "VII": 4625,
    "],": 4626,
    "tio": 4627,
    "Ð²": 4628,
    "inia": 4629,
    "Ġnut": 4630,
    "Ġnig": 4631,
    "Ġetc": 4632,
    "Ġioc": 4633,
    "ommod": 4634,
    "ido": 4635,
    "ĠSum": 4636,
    "Ġdiut": 4637,
    "ĠDuc": 4638,
    "aturum": 4639,
    "Ġincred": 4640,
    "Ġlegere": 4641,
    "Ġvirg": 4642,
    "Ġiura": 4643,
    "Ġ47": 4644,
    "Ġ48": 4645,
    "Ġservit": 4646,
    "Ġsanctific": 4647,
    "Ġordo": 4648,
    "Ġmulieres": 4649,
    "Ġimmo": 4650,
    "Ġdubium": 4651,
    "ĠMaxim": 4652,
    "ĠIoh": 4653,
    "Ġrefert": 4654,
    "Ġclaram": 4655,
    "Ġdifficile": 4656,
    "Ġutilitatem": 4657,
    "Ġcontingit": 4658,
    "ĠPontificatus": 4659,
    "Ġcontempl": 4660,
    "Ġanimadvert": 4661,
    "Ġinterrete": 4662,
    "Pr": 4663,
    "Res": 4664,
    "duc": 4665,
    "mum": 4666,
    "ns": 4667,
    "erer": 4668,
    "Ġnupt": 4669,
    "Ġvinum": 4670,
    "Ġtalem": 4671,
    "reicae": 4672,
    "Ġfun": 4673,
    "Ġrevers": 4674,
    "itatio": 4675,
    "Ġpraestant": 4676,
    "iturum": 4677,
    "Ġhabebit": 4678,
    "Ġattin": 4679,
    "Ġpotestas": 4680,
    "Ġregio": 4681,
    "Ġlegatum": 4682,
    "Ġfecisset": 4683,
    "Ġcurae": 4684,
    "Ġexpugn": 4685,
    "Ġiustum": 4686,
    "Ġcaro": 4687,
    "Ġcarnis": 4688,
    "Ġubique": 4689,
    "Ġvirtutes": 4690,
    "Ġappellantur": 4691,
    "Ġmemoriam": 4692,
    "ĠIulius": 4693,
    "Ġmandata": 4694,
    "Ġauctoritatem": 4695,
    "Ġhonestum": 4696,
    "Ġeffectus": 4697,
    "Ġlumine": 4698,
    "ĠNostri": 4699,
    "å¸Ĥ": 4700,
    "hop": 4701,
    "Ã¼": 4702,
    "ÉĻ": 4703,
    "Ġ}": 4704,
    "Ġcit": 4705,
    "Ġiud": 4706,
    "olo": 4707,
    "elicet": 4708,
    "otum": 4709,
    "ĠSex": 4710,
    "tavit": 4711,
    "Ġperg": 4712,
    "Ġgr": 4713,
    "undus": 4714,
    "andus": 4715,
    "Ġeram": 4716,
    "Ġtex": 4717,
    "Ġintu": 4718,
    "Ġpropinqu": 4719,
    "Ġloca": 4720,
    "Ġobtin": 4721,
    "Ġcuiusque": 4722,
    "Ġdebere": 4723,
    "Ġdebemus": 4724,
    "Ġmortuum": 4725,
    "raece": 4726,
    "Ġlatine": 4727,
    "Ġpuella": 4728,
    "ĠAugusti": 4729,
    "Ġcibum": 4730,
    ",'": 4731,
    "ak": 4732,
    "din": 4733,
    "ek": 4734,
    "nes": 4735,
    "pat": 4736,
    "yl": 4737,
    "Ġæ": 4738,
    "stin": 4739,
    "enc": 4740,
    "Ġadopt": 4741,
    "actus": 4742,
    "Ġdicant": 4743,
    "ipsum": 4744,
    "Ġfacis": 4745,
    "Ġgentibus": 4746,
    "ĠQuin": 4747,
    "ĠLab": 4748,
    "Ġamoris": 4749,
    "isci": 4750,
    "Ġconsent": 4751,
    "ĠVest": 4752,
    "ĠBor": 4753,
    "Ġresist": 4754,
    "iente": 4755,
    "Ġveniunt": 4756,
    "Ġdebetur": 4757,
    "Ġexprim": 4758,
    "Ġdesign": 4759,
    "Ġcognitionem": 4760,
    "Ġreceperunt": 4761,
    "Ġmaiora": 4762,
    "Ġcler": 4763,
    "Ð°Ð½": 4764,
    "Ġvestri": 4765,
    "Ġofficio": 4766,
    "Ġfamilia": 4767,
    "Ġsenect": 4768,
    "Ġdubio": 4769,
    "ĠCaesarem": 4770,
    "Ġoppida": 4771,
    "ĠApostol": 4772,
    "Ġmetus": 4773,
    "ĠThreicae": 4774,
    "ĠReges": 4775,
    "Ġpermitt": 4776,
    "ĠNovembris": 4777,
    "Ġtenebris": 4778,
    "PDF": 4779,
    "Ġrecusandae": 4780,
    "Ġomitt": 4781,
    "ĠNormann": 4782,
    "?'": 4783,
    "ai": 4784,
    "á½": 4785,
    "Ġeundem": 4786,
    "erae": 4787,
    "inn": 4788,
    "onam": 4789,
    "Ġdatum": 4790,
    "Ġtene": 4791,
    "utione": 4792,
    "Ġfav": 4793,
    "Ġfons": 4794,
    "och": 4795,
    "Ġsuus": 4796,
    "Ġconcip": 4797,
    "ĠSocrat": 4798,
    "Ġsiue": 4799,
    "Ġhabita": 4800,
    "Ġposuit": 4801,
    "ivis": 4802,
    "Ġpotentiam": 4803,
    "Ġvideretur": 4804,
    "Ġnequit": 4805,
    "ĠTe": 4806,
    "Ġorationis": 4807,
    "Ġ31": 4808,
    "Ġobliv": 4809,
    "Ġprimam": 4810,
    "Ġinduc": 4811,
    "Ġceteri": 4812,
    "Ġtransl": 4813,
    "ĠPraeterea": 4814,
    "Ġlibertatem": 4815,
    "Ġquarto": 4816,
    "ĠHelv": 4817,
    "ĠRhodano": 4818,
    "Ġarchitecto": 4819,
    "Ġrepudiandae": 4820,
    "82": 4821,
    "Prim": 4822,
    "burg": 4823,
    "Ã´": 4824,
    "Ġ*": 4825,
    "Ġago": 4826,
    "Ġpasc": 4827,
    "entorum": 4828,
    "olest": 4829,
    "antiam": 4830,
    "ĠSyr": 4831,
    "ĠCunt": 4832,
    "Ġdicebat": 4833,
    "Ġaliena": 4834,
    "Ġgentium": 4835,
    "Ġincid": 4836,
    "Ġconsult": 4837,
    "Ġsolis": 4838,
    "Ġcresc": 4839,
    "Ġsubt": 4840,
    "Ġmanet": 4841,
    "Ġmancip": 4842,
    "Ġistius": 4843,
    "ernia": 4844,
    "ograph": 4845,
    "Ġcredunt": 4846,
    "Ġnegat": 4847,
    "Ġpast": 4848,
    "Ġintellego": 4849,
    "ectare": 4850,
    "Ġdiscipulos": 4851,
    "arentur": 4852,
    "Ġcruc": 4853,
    "ĠSeptentr": 4854,
    "Ġrap": 4855,
    "ĠNumquid": 4856,
    "Ġconstructio": 4857,
    "Ġneminem": 4858,
    "Ġsuffrag": 4859,
    "Ġquocumque": 4860,
    "67": 4861,
    "Con": 4862,
    "nic": 4863,
    "pagina": 4864,
    "va": 4865,
    "Ġinh": 4866,
    "Ġtanquam": 4867,
    "Ġexst": 4868,
    "Ġtuos": 4869,
    "ĠVer": 4870,
    "Ġtemplum": 4871,
    "Ġresurre": 4872,
    "Ġdomest": 4873,
    "Ġactione": 4874,
    "Ġtenere": 4875,
    "Ġmatrim": 4876,
    "ĠGraece": 4877,
    "Ġsensum": 4878,
    "ÐµÐ½": 4879,
    "Ġhumana": 4880,
    "Ġcognoscit": 4881,
    "Ġdiscipulis": 4882,
    "Ġmilitum": 4883,
    "ĠCaesare": 4884,
    "Ġaeterna": 4885,
    "Ġtertia": 4886,
    "Ġnegotium": 4887,
    "Ġcustodi": 4888,
    "Ġschol": 4889,
    "ĠStoici": 4890,
    "ĠPiso": 4891,
    "Ġduodecim": 4892,
    "ER": 4893,
    "for": 4894,
    "man": 4895,
    "rom": 4896,
    "ze": 4897,
    "Ø§": 4898,
    "Ġaiunt": 4899,
    "item": 4900,
    "aemon": 4901,
    "oria": 4902,
    "Ġvan": 4903,
    "Ġvari": 4904,
    "Ġtali": 4905,
    "ose": 4906,
    "Ġnonnull": 4907,
    "anto": 4908,
    "undia": 4909,
    "ubi": 4910,
    "Ġinfra": 4911,
    "Ġclaus": 4912,
    "Ġfieret": 4913,
    "Ġreduc": 4914,
    "annis": 4915,
    "Ġalteri": 4916,
    "Ġaltero": 4917,
    "Ġvirtutibus": 4918,
    "Ġmedia": 4919,
    "Ġpatriae": 4920,
    "Ġsupplic": 4921,
    "Ġconstitu": 4922,
    "Ġempt": 4923,
    "Ġostendit": 4924,
    "ardia": 4925,
    "Ġspiritu": 4926,
    "Ġmagistrat": 4927,
    "Ġproximo": 4928,
    "Ġfoedus": 4929,
    "Ġpronunt": 4930,
    "Ġloquebatur": 4931,
    "ĠÂ»Â»Â»": 4932,
    "Ab": 4933,
    "Iacob": 4934,
    "aur": 4935,
    "rupt": 4936,
    "Äģ": 4937,
    "Ġeae": 4938,
    "itionis": 4939,
    "inium": 4940,
    "Ġpud": 4941,
    "Ġpas": 4942,
    "ictus": 4943,
    "aro": 4944,
    "able": 4945,
    "asi": 4946,
    "ions": 4947,
    "ĠDel": 4948,
    "Ġdicendi": 4949,
    "ipot": 4950,
    "ominus": 4951,
    "ĠQuot": 4952,
    "ĠMal": 4953,
    "Ġvellet": 4954,
    "Ġsolent": 4955,
    "Ġintro": 4956,
    "ĠEtenim": 4957,
    "Ġspon": 4958,
    "Ġduxit": 4959,
    "Ġvitia": 4960,
    "Ġreman": 4961,
    "Ġdesin": 4962,
    "Ġreced": 4963,
    "ĠRomanorum": 4964,
    "ĠÐ¸": 4965,
    "ĠÐ½": 4966,
    "Ġcollig": 4967,
    "Ġcredere": 4968,
    "Ġdocet": 4969,
    "illae": 4970,
    "Ġegestas": 4971,
    "Ġnecessarium": 4972,
    "Ġdignissimos": 4973,
    "Ġaquas": 4974,
    "Ġmulierem": 4975,
    "Ġpersona": 4976,
    "ĠAegypto": 4977,
    "Ġdescend": 4978,
    "ĠHispanicum": 4979,
    "Ġnascitur": 4980,
    "ohn": 4981,
    "ĠTheod": 4982,
    "Ġconsumm": 4983,
    "Ġvuln": 4984,
    "Ġfrequenter": 4985,
    "ĠTurc": 4986,
    "Cur": 4987,
    "val": 4988,
    "Ġaus": 4989,
    "isque": 4990,
    "Ġpict": 4991,
    "onio": 4992,
    "Ġdulc": 4993,
    "Ġinstr": 4994,
    "odum": 4995,
    "unque": 4996,
    "abus": 4997,
    "ĠSax": 4998,
    "ĠDi": 4999,
    "undi": 5000,
    "Ġui": 5001,
    "Ġimb": 5002,
    "Ġlibros": 5003,
    "Ġcord": 5004,
    "ĠOp": 5005,
    "Ġpartic": 5006,
    "Ġcuiquam": 5007,
    "Ġintellex": 5008,
    "ĠArv": 5009,
    "Ġsanctorum": 5010,
    "Ġaccipi": 5011,
    "Ġconstituta": 5012,
    "Ġproced": 5013,
    "Ġadmirat": 5014,
    "Ġviol": 5015,
    "Ġquanti": 5016,
    "ĠIlla": 5017,
    "Ġsimpliciter": 5018,
    "Ġdifferentia": 5019,
    "Ġfelic": 5020,
    "ãĢģ": 5021,
    "ĠMartii": 5022,
    "ĠTexiae": 5023,
    ".(": 5024,
    "60": 5025,
    "Ali": 5026,
    "Hispan": 5027,
    "Rom": 5028,
    "risti": 5029,
    "Ġ+": 5030,
    "Ġpell": 5031,
    "anorum": 5032,
    "ole": 5033,
    "Ġutuntur": 5034,
    "anta": 5035,
    "Ġdestr": 5036,
    "allic": 5037,
    "ĠAustr": 5038,
    "ĠIV": 5039,
    "Ġvidelicet": 5040,
    "ĠLectura": 5041,
    "ĠTusc": 5042,
    "ĠVos": 5043,
    "ĠVide": 5044,
    "Ġsole": 5045,
    "ĠGeorg": 5046,
    "Ġcontent": 5047,
    "Ġnaturalis": 5048,
    "Ġcommunic": 5049,
    "Ġacta": 5050,
    "Ġpartim": 5051,
    "Ġnominatus": 5052,
    "Ġdeclin": 5053,
    "Ġcompl": 5054,
    "Ġpuerum": 5055,
    "ĠÐº": 5056,
    "Ġvideamus": 5057,
    "ĠGraecis": 5058,
    "Ġiussit": 5059,
    "Ġtestis": 5060,
    "ĠJud": 5061,
    "Ġignis": 5062,
    "Ġpeti": 5063,
    "Ġreliquum": 5064,
    "ĠPhil": 5065,
    "Ġquaestionem": 5066,
    "ĠThom": 5067,
    "quiesc": 5068,
    "Ð¾Ð²": 5069,
    "Ġtenebrae": 5070,
    "ĠLibero": 5071,
    "Ġsoror": 5072,
    "Ġpenitus": 5073,
    "\"\\\"\\\"\\\"\\\"\\\"\\\"\\\"\\\"\\\"\\\"\\\"\\\"\\\"\\\"\\\"\\\"\\\"\\\"\\\"\\\"\\\"\\\"\\\"\\\"\\\"\\\"\\\"\\\"\\\"\\\"\\\"\\": 5074,
    "Ġadministrat": 5075,
    ".]": 5076,
    "Nunc": 5077,
    "uf": 5078,
    "aen": 5079,
    "olum": 5080,
    "Ġconst": 5081,
    "ĠErat": 5082,
    "ĠSen": 5083,
    "ĠSent": 5084,
    "ĠCamp": 5085,
    "Ġbr": 5086,
    "Ġpotentiae": 5087,
    "ĠHen": 5088,
    "ĠFret": 5089,
    "Ġanimalia": 5090,
    "Ġlegi": 5091,
    "Ġincolae": 5092,
    "ada": 5093,
    "ĠRomanis": 5094,
    "Ġexcus": 5095,
    "Ġvoluntatis": 5096,
    "Ġvirtutum": 5097,
    "Ġconiung": 5098,
    "Ġprocul": 5099,
    "ĠSicut": 5100,
    "Ġproduc": 5101,
    "Ġcolloqu": 5102,
    "Ġdilectus": 5103,
    "Ġdimitt": 5104,
    "own": 5105,
    "ĠVidetur": 5106,
    "Ġiniuriam": 5107,
    "ĠCicero": 5108,
    "Ġcotidie": 5109,
    "Saint": 5110,
    "70": 5111,
    "Sic": 5112,
    "][": 5113,
    "hor": 5114,
    "me": 5115,
    "rium": 5116,
    "Ġquandam": 5117,
    "atium": 5118,
    "Ġcaec": 5119,
    "Ġmatur": 5120,
    "orium": 5121,
    "Ġtalia": 5122,
    "Ġhunt": 5123,
    "ecerunt": 5124,
    "entissime": 5125,
    "Ġutile": 5126,
    "ĠAene": 5127,
    "ĠIdem": 5128,
    "ips": 5129,
    "Ġfacto": 5130,
    "ĠPor": 5131,
    "Ġgign": 5132,
    "ivae": 5133,
    "ĠMC": 5134,
    "Ġvelut": 5135,
    "Ġnex": 5136,
    "Ġessentiae": 5137,
    "ĠBal": 5138,
    "Ġcommut": 5139,
    "Ġfecimus": 5140,
    "ogen": 5141,
    "Ġ188": 5142,
    "sequi": 5143,
    "Ġintellectum": 5144,
    "Ġsaltem": 5145,
    "Ġuxores": 5146,
    "Ġintellegi": 5147,
    "ĠPatrem": 5148,
    "ĠAbrah": 5149,
    "ĠSanctus": 5150,
    "ationi": 5151,
    "Ġargumentum": 5152,
    "ĠOctobris": 5153,
    "Ġiudex": 5154,
    "ST": 5155,
    "bo": 5156,
    "cis": 5157,
    "lav": 5158,
    "mata": 5159,
    "pot": 5160,
    "sal": 5161,
    "uers": 5162,
    "yri": 5163,
    "Ġeandem": 5164,
    "Ġpun": 5165,
    "icas": 5166,
    "Ġvicus": 5167,
    "esper": 5168,
    "aribus": 5169,
    "ĠCras": 5170,
    "Ġperfer": 5171,
    "Ġbarb": 5172,
    "Ġgrammat": 5173,
    "Ġpoteris": 5174,
    "ĠMont": 5175,
    "ĠLingu": 5176,
    "ĠBel": 5177,
    "Ġnumer": 5178,
    "Ġoculus": 5179,
    "Ġoctav": 5180,
    "Ġcausas": 5181,
    "Ġcapere": 5182,
    "Ġamicorum": 5183,
    "Ġactiones": 5184,
    "Ġinform": 5185,
    "Ġ50": 5186,
    "Ġcredimus": 5187,
    "Ġnovam": 5188,
    "iensis": 5189,
    "itiarum": 5190,
    "poss": 5191,
    "Ġconstituit": 5192,
    "ĠPatre": 5193,
    "ĠIesum": 5194,
    "Ġcontinentur": 5195,
    "Ġporno": 5196,
    "Ġforo": 5197,
    "Ġcelerit": 5198,
    "ĠPraes": 5199,
    "Ġpalam": 5200,
    "ĠMoses": 5201,
    "Ġpaupert": 5202,
    "Ġpoliticarum": 5203,
    "Ġcarnem": 5204,
    "Ġsodalis": 5205,
    "Ġsimilique": 5206,
    "Ġappareat": 5207,
    "Ġcondemn": 5208,
    "ĠArvernia": 5209,
    "Lib": 5210,
    "ba": 5211,
    "àµ": 5212,
    "ity": 5213,
    "itos": 5214,
    "Ġpe": 5215,
    "atia": 5216,
    "atius": 5217,
    "Ġcav": 5218,
    "Ġnud": 5219,
    "ĠSac": 5220,
    "ĠSab": 5221,
    "Ġpercus": 5222,
    "Ġfaciant": 5223,
    "Ġger": 5224,
    "Ġposita": 5225,
    "Ġscand": 5226,
    "Ġeiusmodi": 5227,
    "Ġpotuerunt": 5228,
    "ebunt": 5229,
    "ĠLoth": 5230,
    "ĠHuic": 5231,
    "Ġcontend": 5232,
    "Ġsecus": 5233,
    "Ġregi": 5234,
    "Ġveniat": 5235,
    "Ġimpos": 5236,
    "Ġimport": 5237,
    "Ġillumin": 5238,
    "Ġbenevol": 5239,
    "Ġdomini": 5240,
    "Ð¾ÑĤ": 5241,
    "Ġmunere": 5242,
    "Ġsingulis": 5243,
    "Ġprodest": 5244,
    "Ġcolloc": 5245,
    "Ġeffug": 5246,
    "Ġpericulum": 5247,
    "Ġexcepturi": 5248,
    "Ġinstrum": 5249,
    "Ġdemonstrat": 5250,
    "ĠPicardia": 5251,
    "?[": 5252,
    "ail": 5253,
    "hon": 5254,
    "uerat": 5255,
    "Ã¤": 5256,
    "ÏĢ": 5257,
    "Ġquint": 5258,
    "ono": 5259,
    "ster": 5260,
    "Ġdile": 5261,
    "Ġfiant": 5262,
    "uniae": 5263,
    "antiae": 5264,
    "ĠAem": 5265,
    "ĠCan": 5266,
    "itata": 5267,
    "Ġpossem": 5268,
    "Ġrogo": 5269,
    "ĠLud": 5270,
    "Ġamitt": 5271,
    "Ġvoluerunt": 5272,
    "ĠĠĠ": 5273,
    "ĠBe": 5274,
    "Ġregionem": 5275,
    "Ġmans": 5276,
    "Ġnosse": 5277,
    "Ġrationes": 5278,
    "Ġurbibus": 5279,
    "Ġmaled": 5280,
    "ĠNonne": 5281,
    "Ġconcord": 5282,
    "ĠAtqui": 5283,
    "Ġinsula": 5284,
    "Ġresponsum": 5285,
    "Ġmedium": 5286,
    "Ġprocur": 5287,
    "Ġmenses": 5288,
    "Ġsacram": 5289,
    "Ġpace": 5290,
    "Ġmira": 5291,
    "Ġlacrim": 5292,
    "Ġnarrat": 5293,
    "Ġperfecta": 5294,
    "Ġfiguras": 5295,
    "Ġsempiternum": 5296,
    "ĠRespon": 5297,
    "ĠNoe": 5298,
    "Ġmultiplic": 5299,
    "Ġattinet": 5300,
    "John": 5301,
    "ah": 5302,
    "tam": 5303,
    "xerunt": 5304,
    "Åį": 5305,
    "á»": 5306,
    "erno": 5307,
    "Ġso": 5308,
    "ory": 5309,
    "Ġinest": 5310,
    "Ġfat": 5311,
    "entior": 5312,
    "Ġnonn": 5313,
    "Ġlo": 5314,
    "ĠAquit": 5315,
    "ĠSin": 5316,
    "Ġmeas": 5317,
    "ĠDum": 5318,
    "raverunt": 5319,
    "ivid": 5320,
    "Ġpotui": 5321,
    "ĠRerum": 5322,
    "ĠFT": 5323,
    "ĠFuit": 5324,
    "ĠTunc": 5325,
    "Ġmaj": 5326,
    "Ġorig": 5327,
    "epi": 5328,
    "Ġarma": 5329,
    "uliel": 5330,
    "ires": 5331,
    "Ġdolere": 5332,
    "Ġspe": 5333,
    "Ġocto": 5334,
    "iatio": 5335,
    "Ġration": 5336,
    "Ġurbes": 5337,
    "Ġsuperb": 5338,
    "Ġapplic": 5339,
    "Ġpuero": 5340,
    "Ġinsid": 5341,
    "Ġdefunct": 5342,
    "Ġnescit": 5343,
    "ĠGraecos": 5344,
    "Ġiusta": 5345,
    "Ġtranse": 5346,
    "Ġignosc": 5347,
    "Ġoportere": 5348,
    "numer": 5349,
    "Ġvixit": 5350,
    "ĠApoll": 5351,
    "Ġfluv": 5352,
    "Ġevangeli": 5353,
    "Ġaudivimus": 5354,
    "Ġlicebit": 5355,
    "Ġdescrip": 5356,
    "Ġlacus": 5357,
    "Ġtemper": 5358,
    "Ġá¼": 5359,
    "ĠBoruss": 5360,
    "ĠNormannia": 5361,
    "Hispanice": 5362,
    "56": 5363,
    "57": 5364,
    "@Ą": 5365,
    "ca": 5366,
    "do": 5367,
    "mitt": 5368,
    "nde": 5369,
    "oec": 5370,
    "ä»": 5371,
    "Ġnulli": 5372,
    "Ġmox": 5373,
    "Ġmonte": 5374,
    "Ġfine": 5375,
    "olv": 5376,
    "Ġleo": 5377,
    "aci": 5378,
    "actum": 5379,
    "abimus": 5380,
    "illi": 5381,
    "ĠEum": 5382,
    "ĠCirc": 5383,
    "ĠDiet": 5384,
    "itatur": 5385,
    "ĠPap": 5386,
    "Ġsedis": 5387,
    "andis": 5388,
    "Ġvideat": 5389,
    "ĠHodie": 5390,
    "iscus": 5391,
    "Ġplant": 5392,
    "Ġfui": 5393,
    "Ġliberum": 5394,
    "Ġdixisse": 5395,
    "Ġviris": 5396,
    "Ġlocuti": 5397,
    "Ġaudac": 5398,
    "ĠAnd": 5399,
    "Ġsemet": 5400,
    "Ġpraesentia": 5401,
    "Ġvocant": 5402,
    "Ġputant": 5403,
    "Ġdivitias": 5404,
    "Ġdesiderat": 5405,
    "Ġdoct": 5406,
    "sitan": 5407,
    "Ġcerto": 5408,
    "Ġimperii": 5409,
    "Ġsusp": 5410,
    "Ġhonorem": 5411,
    "ĠJo": 5412,
    "Ġconiug": 5413,
    "Ġ179": 5414,
    "ĠAliter": 5415,
    "Ġnoct": 5416,
    "Ġthes": 5417,
    "Ġtribu": 5418,
    "Ġpactum": 5419,
    "Ġvetust": 5420,
    "Ġmotu": 5421,
    "Ġnolite": 5422,
    "ĠPlat": 5423,
    "Ġpraestare": 5424,
    "Ġsimilitudinem": 5425,
    "Ġbenign": 5426,
    "Ġmanifestum": 5427,
    "Ġvulgo": 5428,
    "à«¨": 5429,
    "Ġfiducia": 5430,
    "Ġmomenti": 5431,
    "ĠAprilis": 5432,
    "byter": 5433,
    "Ġcrudel": 5434,
    "Ġceleriter": 5435,
    "51": 5436,
    "Ecce": 5437,
    "dom": 5438,
    "lend": 5439,
    "pa": 5440,
    "pta": 5441,
    "uos": 5442,
    "yc": 5443,
    "yn": 5444,
    "ÂŃ": 5445,
    "ÌĦ": 5446,
    "ÙĪ": 5447,
    "atto": 5448,
    "Ġcito": 5449,
    "Ġmentis": 5450,
    "iculum": 5451,
    "Ġetenim": 5452,
    "ibilia": 5453,
    "ock": 5454,
    "ĠCae": 5455,
    "ĠCumque": 5456,
    "Ġcoeperunt": 5457,
    "Ġhabitavit": 5458,
    "ĠNesc": 5459,
    "unde": 5460,
    "ebamus": 5461,
    "Ġverbi": 5462,
    "Ġipsae": 5463,
    "ĠHuius": 5464,
    "Ġattrib": 5465,
    "Ġplena": 5466,
    "ove": 5467,
    "Ġfeceris": 5468,
    "Ġviros": 5469,
    "Ġvenisset": 5470,
    "ĠOcc": 5471,
    "Ġmanere": 5472,
    "Ġvocavit": 5473,
    "Ġputa": 5474,
    "Ġexpect": 5475,
    "Ġcomput": 5476,
    "ĠRomanos": 5477,
    "Ġdoctor": 5478,
    "Ġabsur": 5479,
    "Ġhonore": 5480,
    "Ġmedioc": 5481,
    "Ġstudia": 5482,
    "Ġwith": 5483,
    "Ġlongius": 5484,
    "Ġintelligi": 5485,
    "Ġintelligere": 5486,
    "numquam": 5487,
    "Ġpeccata": 5488,
    "Ġimmort": 5489,
    "ĠApp": 5490,
    "Ġhabeam": 5491,
    "ĠPetrus": 5492,
    "Ġnuntia": 5493,
    "Ġcasus": 5494,
    "Ġgesta": 5495,
    "Ġnavig": 5496,
    "ropter": 5497,
    "Ġaffectus": 5498,
    "Ġbaptiz": 5499,
    "ĠMCM": 5500,
    "79": 5501,
    "AT": 5502,
    "ton": 5503,
    "vid": 5504,
    "Åĵ": 5505,
    "Îº": 5506,
    "Ð¿": 5507,
    "äº": 5508,
    "Ġcentes": 5509,
    "Ġdabo": 5510,
    "orsum": 5511,
    "Ġfauc": 5512,
    "esiae": 5513,
    "unae": 5514,
    "ĠQuir": 5515,
    "ensem": 5516,
    "Ġ(-": 5517,
    "elle": 5518,
    "Ġcujus": 5519,
    "Ġregionis": 5520,
    "rans": 5521,
    "erisque": 5522,
    "Ġloquimur": 5523,
    "Ġmagnae": 5524,
    "Ġmagnitudo": 5525,
    "Ġputat": 5526,
    "Ġcursus": 5527,
    "Ġcivium": 5528,
    "Ġecclesiis": 5529,
    "ĠFrancicus": 5530,
    "Ġsentire": 5531,
    "Ġpersuas": 5532,
    "Ġoppugn": 5533,
    "Ġfrustra": 5534,
    "Ġordinis": 5535,
    "Ġdisplic": 5536,
    "Ġrectum": 5537,
    "Ġdemum": 5538,
    "Ġdistingu": 5539,
    "Ġporta": 5540,
    "Ġmonst": 5541,
    "Ġavar": 5542,
    "Ġhostes": 5543,
    "ĠCatala": 5544,
    "Ġconviv": 5545,
    "Ġaccepimus": 5546,
    "ĠPaulus": 5547,
    "Ġarchiepiscop": 5548,
    "Ġdemonstr": 5549,
    "Ġnatos": 5550,
    "Ġascend": 5551,
    "ĠEnn": 5552,
    "Ġsubsist": 5553,
    "Ġextremum": 5554,
    "Ġdoctrina": 5555,
    "Act": 5556,
    "Sc": 5557,
    "ien": 5558,
    "iatis": 5559,
    "mp": 5560,
    "uerint": 5561,
    "yd": 5562,
    "Ä«": 5563,
    "Ð´": 5564,
    "Ð¼": 5565,
    "ĠÄ": 5566,
    "Ġé": 5567,
    "Ġumb": 5568,
    "umentum": 5569,
    "Ġfrum": 5570,
    "ars": 5571,
    "Ġadsum": 5572,
    "ack": 5573,
    "Ġutinam": 5574,
    "Ġomnipot": 5575,
    "Ġmeos": 5576,
    "Ġdicendo": 5577,
    "Ġverius": 5578,
    "Ġeris": 5579,
    "Ġamo": 5580,
    "ĠTamen": 5581,
    "Ġunquam": 5582,
    "issimam": 5583,
    "Ġobt": 5584,
    "onto": 5585,
    "Ġgratis": 5586,
    "Ġinvoc": 5587,
    "Ġclass": 5588,
    "Ġprobare": 5589,
    "Ġfru": 5590,
    "rehens": 5591,
    "Ġimperio": 5592,
    "Ġsanctus": 5593,
    "olia": 5594,
    "Ġdignitate": 5595,
    "pectum": 5596,
    "Ġliberos": 5597,
    "Ġcupio": 5598,
    "Ġmateriae": 5599,
    "ĠPhara": 5600,
    "ĠPhaed": 5601,
    "ĠApud": 5602,
    "ĠIulia": 5603,
    "Ġtradidit": 5604,
    "ĠAntioc": 5605,
    "ĠImmo": 5606,
    "Ġrevoc": 5607,
    "ĠSpiritum": 5608,
    "Ġfeminae": 5609,
    "Ġmeridi": 5610,
    "Ġadulter": 5611,
    "ÑģÑĤÐ¸": 5612,
    "Ġinfinitum": 5613,
    "ĠSecundum": 5614,
    "Inter": 5615,
    "ĠCatalauniae": 5616,
    "53": 5617,
    "Dixit": 5618,
    "den": 5619,
    "rica": 5620,
    "Ñħ": 5621,
    "itorum": 5622,
    "amentum": 5623,
    "Ġcat": 5624,
    "orp": 5625,
    "Ġfra": 5626,
    "ĠhÃ¦c": 5627,
    "iderit": 5628,
    "ularum": 5629,
    "edi": 5630,
    "Ġlen": 5631,
    "ĠEz": 5632,
    "ĠSoc": 5633,
    "ĠCui": 5634,
    "Ġmeorum": 5635,
    "ĠDom": 5636,
    "ĠDioecesis": 5637,
    "tax": 5638,
    "Ġpraedi": 5639,
    "ilior": 5640,
    "Ġpossibile": 5641,
    "Ġvelis": 5642,
    "ĠHeb": 5643,
    "ĠBen": 5644,
    "ineat": 5645,
    "Ġvenerit": 5646,
    "Ġsimilia": 5647,
    "Ġsimplex": 5648,
    "ĠAnglic": 5649,
    "ĠÐļ": 5650,
    "iosi": 5651,
    "Ġmaioris": 5652,
    "Ġpraeceptum": 5653,
    "Ġlinguis": 5654,
    "Ð¾ÑĢ": 5655,
    "Ġingressi": 5656,
    "Ġexercitu": 5657,
    "Etiam": 5658,
    "Ġtantae": 5659,
    "ĠConf": 5660,
    "Ġconvenire": 5661,
    "Ġpulchr": 5662,
    "Ġfamiliar": 5663,
    "Ġpersonam": 5664,
    "Ġperman": 5665,
    "Ġbibendum": 5666,
    "Ġgaudio": 5667,
    "Ġcalam": 5668,
    "Ġconsuetudo": 5669,
    "Ġopinor": 5670,
    "price": 5671,
    "Ġrevel": 5672,
    "Ġimaginem": 5673,
    "rinsec": 5674,
    "ĠFoederalis": 5675,
    "Ġfaucibus": 5676,
    "IC": 5677,
    "Mag": 5678,
    "Nec": 5679,
    "uer": 5680,
    "vel": 5681,
    "Ġpiet": 5682,
    "Ġnit": 5683,
    "Ġnuper": 5684,
    "Ġinquis": 5685,
    "utrum": 5686,
    "Ġiunct": 5687,
    "arer": 5688,
    "aring": 5689,
    "anter": 5690,
    "ĠPraec": 5691,
    "issemus": 5692,
    "ĠLae": 5693,
    "Ġvolut": 5694,
    "Ġaccur": 5695,
    "ĠBest": 5696,
    "Ġcontum": 5697,
    "Ġsplend": 5698,
    "Ġobiit": 5699,
    "Ġpraesum": 5700,
    "Ġvocari": 5701,
    "stitit": 5702,
    "Ġsicuti": 5703,
    "Ġpopulos": 5704,
    "Ġservos": 5705,
    "Ġfratri": 5706,
    "Ġdocuit": 5707,
    "ĠLatinae": 5708,
    "Ġ70": 5709,
    "Ġsaecula": 5710,
    "ÐµÑĤ": 5711,
    "Ġlongum": 5712,
    "Ġtanti": 5713,
    "Ġpoeta": 5714,
    "Ġmovetur": 5715,
    "Ġefficitur": 5716,
    "Ġmandatum": 5717,
    "Ġreddere": 5718,
    "Ġchristi": 5719,
    "Ġnegotio": 5720,
    "Ġconsuetudinem": 5721,
    "Ġcopia": 5722,
    "Ġinimic": 5723,
    "Ġpuellae": 5724,
    "Ġambig": 5725,
    "Ġcontemn": 5726,
    "ÑĩÐ°": 5727,
    "Ġcaelorum": 5728,
    "Ġproportio": 5729,
    "@Ąą": 5730,
    "St": 5731,
    "UN": 5732,
    "mae": 5733,
    "son": 5734,
    "Ġ$": 5735,
    "Ġaffic": 5736,
    "Ġster": 5737,
    "Ġcam": 5738,
    "Ġcod": 5739,
    "Ġinop": 5740,
    "Ġvas": 5741,
    "ilitate": 5742,
    "otae": 5743,
    "Ġbore": 5744,
    "ectio": 5745,
    "ĠPublic": 5746,
    "Ġtuorum": 5747,
    "ĠMaria": 5748,
    "Ġveluti": 5749,
    "Ġvidimus": 5750,
    "arios": 5751,
    "esset": 5752,
    "ĠBer": 5753,
    "Ġcomment": 5754,
    "Ġcommitt": 5755,
    "ientiae": 5756,
    "Ġprimogen": 5757,
    "Ġmane": 5758,
    "ĠAnnis": 5759,
    "Ġpraesentem": 5760,
    "Ġvoces": 5761,
    "Ġiudicare": 5762,
    "Ġdesid": 5763,
    "Ġsentio": 5764,
    "Ġservo": 5765,
    "Ġgratum": 5766,
    "Ġscribo": 5767,
    "Ġvivunt": 5768,
    "Ġcarne": 5769,
    "Ġdefens": 5770,
    "Ġtrah": 5771,
    "Ġpropriam": 5772,
    "Ġadmir": 5773,
    "ĠPatris": 5774,
    "Ġthat": 5775,
    "Ġaudierit": 5776,
    "Ġpulcherrim": 5777,
    "Ġphilosophus": 5778,
    "Ġexemplar": 5779,
    "ationum": 5780,
    "Ġgaudium": 5781,
    "Ġdisser": 5782,
    "Ġepistula": 5783,
    "Ð¾Ð¼": 5784,
    "ĠPostea": 5785,
    "Ð°Ð¿": 5786,
    "prod": 5787,
    "Ġcognov": 5788,
    "Ġradic": 5789,
    "Ġirr": 5790,
    "ĠCaput": 5791,
    "Ġpossibilia": 5792,
    "Ġobiectum": 5793,
    "Ġmunicipium": 5794,
    "Ġmendac": 5795,
    "Tor": 5796,
    "US": 5797,
    "eus": 5798,
    "urn": 5799,
    "Ġferm": 5800,
    "Ġhave": 5801,
    "osa": 5802,
    "ĠAch": 5803,
    "ĠCel": 5804,
    "Ġdiceretur": 5805,
    "endos": 5806,
    "ĠQuorum": 5807,
    "ĠQuando": 5808,
    "Ġhaberi": 5809,
    "Ġru": 5810,
    "eritas": 5811,
    "Ġvoluerit": 5812,
    "Ġplan": 5813,
    "Ġnosti": 5814,
    "Ġsubl": 5815,
    "Ġagendum": 5816,
    "Ġcives": 5817,
    "ĠRomano": 5818,
    "Ġingressus": 5819,
    "Ġaccipit": 5820,
    "Ġsubiecta": 5821,
    "Ġaequum": 5822,
    "Ġlucet": 5823,
    "Ġfornic": 5824,
    "Ġantiqua": 5825,
    "Ġphilosophiae": 5826,
    "Ġdissensio": 5827,
    "ĠAegyptum": 5828,
    "Ġhoneste": 5829,
    "Ġ//": 5830,
    "Ġnarr": 5831,
    "Ġiucundum": 5832,
    "Ġfigura": 5833,
    "Ġbeneficium": 5834,
    "ĠMoys": 5835,
    "ĠImperii": 5836,
    "Ġantepon": 5837,
    "Ġquadraginta": 5838,
    "ĠOmne": 5839,
    "ĠEzech": 5840,
    "Gen": 5841,
    "guis": 5842,
    "Î·": 5843,
    "âĨ": 5844,
    "erter": 5845,
    "invent": 5846,
    "Ġquicumque": 5847,
    "Ġpign": 5848,
    "Ġcent": 5849,
    "Ġna": 5850,
    "empt": 5851,
    "Ġfont": 5852,
    "Ġhercule": 5853,
    "Ġrede": 5854,
    "sel": 5855,
    "Ġquodcumque": 5856,
    "ĠSaepe": 5857,
    "ĠCam": 5858,
    "Ġsig": 5859,
    "ĠNisi": 5860,
    "ivo": 5861,
    "ebis": 5862,
    "Ġuide": 5863,
    "Ġuiu": 5864,
    "Ġrid": 5865,
    "Ġconson": 5866,
    "ĠVis": 5867,
    "Ġuni": 5868,
    "Ġnostros": 5869,
    "Ġsimiles": 5870,
    "Ġpraesenti": 5871,
    "Ġputet": 5872,
    "uxerunt": 5873,
    "Ġdivin": 5874,
    "ogallic": 5875,
    "Ġcorpora": 5876,
    "remo": 5877,
    "Ġmaioribus": 5878,
    "Ġresponde": 5879,
    "Ġuxoris": 5880,
    "Ġduce": 5881,
    "Ġdigna": 5882,
    "Ġpetere": 5883,
    "Ġindivid": 5884,
    "Ġfals": 5885,
    "Ġbeati": 5886,
    "Ġveteres": 5887,
    "Ġpossessio": 5888,
    "Ġartis": 5889,
    "ĠGalli": 5890,
    "Ġattend": 5891,
    "Ġalieno": 5892,
    "Ġ1946": 5893,
    "Ġsinist": 5894,
    "Ġmerced": 5895,
    "ologiae": 5896,
    "Ġnascuntur": 5897,
    "Ġsocietatem": 5898,
    "Ġiniuria": 5899,
    "Ġpoenam": 5900,
    "ĠAfric": 5901,
    "Ġperegrin": 5902,
    ".:": 5903,
    "80": 5904,
    "Graece": 5905,
    "cit": 5906,
    "ef": 5907,
    "hn": 5908,
    "ik": 5909,
    "rici": 5910,
    "ĠÅ": 5911,
    "Ġï¿½": 5912,
    "Ġstare": 5913,
    "isiones": 5914,
    "Ġcand": 5915,
    "Ġcerta": 5916,
    "Ġdid": 5917,
    "oram": 5918,
    "Ġvade": 5919,
    "Ġprodi": 5920,
    "Ġadeptus": 5921,
    "ilitatis": 5922,
    "ĠServ": 5923,
    "ĠCant": 5924,
    "Ġfacerem": 5925,
    "Ġbis": 5926,
    "ĠPort": 5927,
    "omine": 5928,
    "nov": 5929,
    "ĠMulta": 5930,
    "Ġquoquo": 5931,
    "Ġversus": 5932,
    "Ġvellem": 5933,
    "Ġvidisset": 5934,
    "Ġrob": 5935,
    "Ġaliqui": 5936,
    "Ġconsiderat": 5937,
    "ĠGuliel": 5938,
    "Ġintent": 5939,
    "Ġbonae": 5940,
    "Ġvenen": 5941,
    "Ġmultas": 5942,
    "Ġduabus": 5943,
    "dict": 5944,
    "Ġistae": 5945,
    "Ġmaximam": 5946,
    "entesimo": 5947,
    "elium": 5948,
    "ĠÐ´": 5949,
    "Ġtenet": 5950,
    "Ġ2013": 5951,
    "Ġopprim": 5952,
    "Ġexcel": 5953,
    "Ġprincipia": 5954,
    "Ġsancto": 5955,
    "Ġnecessario": 5956,
    "Ġlaudem": 5957,
    "Ġlonga": 5958,
    "Ġmunera": 5959,
    "Ġdonum": 5960,
    "Ġefficit": 5961,
    "Ġforsitan": 5962,
    "Ġfinibus": 5963,
    "Ġcanon": 5964,
    "Ġdefinitio": 5965,
    "renae": 5966,
    "Ġcastra": 5967,
    "Ġdisper": 5968,
    "Ġlaetitia": 5969,
    "ĠEpicuri": 5970,
    "Ġnouit": 5971,
    "ĠAristot": 5972,
    "riusque": 5973,
    "ĠInferiori": 5974,
    "ĠAquitania": 5975,
    "Iam": 5976,
    "Page": 5977,
    "cere": 5978,
    "ruc": 5979,
    "ricus": 5980,
    "Ġë": 5981,
    "ĠÃ¦": 5982,
    "Ġsect": 5983,
    "itiones": 5984,
    "Ġpontific": 5985,
    "Ġtang": 5986,
    "real": 5987,
    "Ġfung": 5988,
    "lix": 5989,
    "imini": 5990,
    "Ġhom": 5991,
    "entiis": 5992,
    "Ġredem": 5993,
    "acula": 5994,
    "ilitas": 5995,
    "Ġexaud": 5996,
    "ĠCerte": 5997,
    "Quo": 5998,
    "Ġperse": 5999,
    "Ġilluc": 6000,
    "Ġsciat": 6001,
    "Ġquidd": 6002,
    "issis": 6003,
    "ĠFab": 6004,
    "Ġmaiorum": 6005,
    "Ġintus": 6006,
    "ĠBurg": 6007,
    "âĢĵ": 6008,
    "ight": 6009,
    "Ġinteresse": 6010,
    "incip": 6011,
    "Ġpatres": 6012,
    "Ġdoloris": 6013,
    "Ġ32": 6014,
    "Ġcommunem": 6015,
    "Ġurbicula": 6016,
    "Ġcivis": 6017,
    "Ġdecern": 6018,
    "Ġconfess": 6019,
    "ĠÐ¾": 6020,
    "Ġ57": 6021,
    "Ġpersec": 6022,
    "Ġpraeterita": 6023,
    "Ġvideor": 6024,
    "Ġconsequi": 6025,
    "Ġducere": 6026,
    "Ġgradus": 6027,
    "Ġullum": 6028,
    "Ġsenatu": 6029,
    "Ġconstitutum": 6030,
    "Ġproprio": 6031,
    "ĠConc": 6032,
    "Ġpraedicatur": 6033,
    "Ġfaciatis": 6034,
    "Ġfaciebat": 6035,
    "Ġquinqu": 6036,
    "ãģ®": 6037,
    "Ġaequo": 6038,
    "ĠPhili": 6039,
    "ĠGermania": 6040,
    "Ġsingula": 6041,
    "Ġperfectio": 6042,
    "Ġexemplo": 6043,
    "Ġrespondens": 6044,
    "Ġcorrig": 6045,
    "Ġquartum": 6046,
    "Ġcelebr": 6047,
    "Ġperturb": 6048,
    "Quamquam": 6049,
    "ĠEbor": 6050,
    "ĠPhaedrum": 6051,
    "product": 6052,
    "89": 6053,
    "Id": 6054,
    "Lat": 6055,
    "Temp": 6056,
    "best": 6057,
    "sic": 6058,
    "ym": 6059,
    "Ġurg": 6060,
    "Ġeb": 6061,
    "Ġsimus": 6062,
    "Ġsati": 6063,
    "onii": 6064,
    "onensi": 6065,
    "Ġvar": 6066,
    "Ġtol": 6067,
    "arr": 6068,
    "Ġadt": 6069,
    "Ġlectus": 6070,
    "abar": 6071,
    "ĠIap": 6072,
    "itatione": 6073,
    "Ġbl": 6074,
    "Ġcoh": 6075,
    "Ġhabitus": 6076,
    "Ġpoterunt": 6077,
    "ĠMus": 6078,
    "Ġapt": 6079,
    "ĠRhen": 6080,
    "Ġprofer": 6081,
    "Ġincon": 6082,
    "ĠTorqu": 6083,
    "ĠBeat": 6084,
    "Ġorta": 6085,
    "Ġliberat": 6086,
    "Ġresid": 6087,
    "Ġrescrip": 6088,
    "eriis": 6089,
    "Ġfecerat": 6090,
    "Ġterm": 6091,
    "Ġ--": 6092,
    "Ġmansit": 6093,
    "Ġ49": 6094,
    "ugiat": 6095,
    "Ġcomplect": 6096,
    "Ġ56": 6097,
    "Ġpraefectus": 6098,
    "Ġmemini": 6099,
    "Ġsalus": 6100,
    "ĠConsequ": 6101,
    "Ġcontrario": 6102,
    "Ġepiscopi": 6103,
    "quisque": 6104,
    "Ġturpe": 6105,
    "Ġluxur": 6106,
    "Ġbrevi": 6107,
    "âĢĻ.": 6108,
    "ĠAss": 6109,
    "Ġdiversa": 6110,
    "âĢ¦]": 6111,
    "Ġorbem": 6112,
    "Ġdevor": 6113,
    "Montreal": 6114,
    "ĠJesus": 6115,
    "possibile": 6116,
    "Ġvolutpat": 6117,
    "UNIT": 6118,
    "Toronto": 6119,
    "Ill": 6120,
    "Man": 6121,
    "ge": 6122,
    "ymn": 6123,
    "Ð±": 6124,
    "Ġol": 6125,
    "Ġsag": 6126,
    "Ġsurg": 6127,
    "etum": 6128,
    "idae": 6129,
    "Ġlorem": 6130,
    "acti": 6131,
    "Ġutriusque": 6132,
    "ilitatem": 6133,
    "ĠSel": 6134,
    "Ġdicebant": 6135,
    "ĠPal": 6136,
    "Ġgem": 6137,
    "nox": 6138,
    "Ġhabentur": 6139,
    "Ġpotissimum": 6140,
    "ĠMaced": 6141,
    "Ġvert": 6142,
    "Ġerip": 6143,
    "ĠHer": 6144,
    "Ġproi": 6145,
    "Ġconsens": 6146,
    "ĠVic": 6147,
    "ariorum": 6148,
    "Ġmaximus": 6149,
    "Ġintrod": 6150,
    "Ġminorem": 6151,
    "Ġmultitudinem": 6152,
    "raesent": 6153,
    "Ġcivibus": 6154,
    "Ġnominibus": 6155,
    "Ġinvestig": 6156,
    "Ġfratris": 6157,
    "Ġinsulae": 6158,
    "Ġ69": 6159,
    "Ġaetatem": 6160,
    "Ġsatisfac": 6161,
    "Ġsensibus": 6162,
    "Ġphys": 6163,
    "Ġdiscipulus": 6164,
    "Ġdisciplin": 6165,
    "Ġmateriam": 6166,
    "Ġrespondere": 6167,
    "Ġfines": 6168,
    "ĠGalliae": 6169,
    "ulgate": 6170,
    "Ġyour": 6171,
    "Ġcongue": 6172,
    "Ġfemina": 6173,
    "Ġquaesitum": 6174,
    "Ġministrorum": 6175,
    "ĠMichig": 6176,
    "ĠAbraham": 6177,
    "ĠLotharing": 6178,
    "ĠLudov": 6179,
    "Null": 6180,
    "Nisi": 6181,
    "Pl": 6182,
    "Per": 6183,
    "alibus": 6184,
    "eu": 6185,
    "ujus": 6186,
    "vm": 6187,
    "á¿": 6188,
    "quot": 6189,
    "Ġaere": 6190,
    "Ġpurg": 6191,
    "Ġpeperit": 6192,
    "Ġcm": 6193,
    "Ġcen": 6194,
    "Ġmari": 6195,
    "Ġflor": 6196,
    "Ġheb": 6197,
    "idium": 6198,
    "ecc": 6199,
    "entu": 6200,
    "Ġutero": 6201,
    "ila": 6202,
    "oto": 6203,
    "Ġpotens": 6204,
    "Ġcompon": 6205,
    "Ġconsilia": 6206,
    "Ġcontig": 6207,
    "Ġcorrum": 6208,
    "ĠOpt": 6209,
    "Ġnumeri": 6210,
    "Ġ34": 6211,
    "Ġagam": 6212,
    "Ġhabetis": 6213,
    "Ġexpos": 6214,
    "Ġdisced": 6215,
    "Ġfortitudo": 6216,
    "Ġconfid": 6217,
    "Ġiustific": 6218,
    "Ġcolor": 6219,
    "Ġcertus": 6220,
    "Ġformas": 6221,
    "Ġalteram": 6222,
    "Ġnecessitate": 6223,
    "Ġgravis": 6224,
    "Ġreliquerunt": 6225,
    "Ġsupp": 6226,
    "Ġdisciplina": 6227,
    "Ġintelligit": 6228,
    "ĠCivitatum": 6229,
    "ĠUnivers": 6230,
    "load": 6231,
    "Ġcontinet": 6232,
    "Ġpacto": 6233,
    "Ġobsec": 6234,
    "Ġobscur": 6235,
    "ĠPlac": 6236,
    "Ġparvulus": 6237,
    "Ġangust": 6238,
    "iretur": 6239,
    "Ġaccidens": 6240,
    "Ġaccepi": 6241,
    "Ġaugue": 6242,
    "ĠIpse": 6243,
    "Ġvaletud": 6244,
    "Ġcrimen": 6245,
    "Ġaufer": 6246,
    "Ġantepos": 6247,
    "Ġoccidentalis": 6248,
    "ĠVirg": 6249,
    "ĠQuirites": 6250,
    "Ġcontumeli": 6251,
    "âĨĳ": 6252,
    "Dol": 6253,
    "German": 6254,
    "of": 6255,
    "san": 6256,
    "Ġlim": 6257,
    "sti": 6258,
    "Ġdabit": 6259,
    "Ġmores": 6260,
    "orta": 6261,
    "Ġtard": 6262,
    "Ġira": 6263,
    "arus": 6264,
    "Ġrequ": 6265,
    "ĠAud": 6266,
    "ĠIgitur": 6267,
    "ĠCet": 6268,
    "Ġdicemus": 6269,
    "ipso": 6270,
    "Ġperi": 6271,
    "Ġby": 6272,
    "Ġgessit": 6273,
    "ego": 6274,
    "Ġeiusque": 6275,
    "ĠMil": 6276,
    "ĠMerc": 6277,
    "ĠMolest": 6278,
    "Ġoperis": 6279,
    "averat": 6280,
    "Ġamorem": 6281,
    "ĠFal": 6282,
    "Ġpariter": 6283,
    "Ġparoec": 6284,
    "iscip": 6285,
    "ĠEadem": 6286,
    "Ġaccessit": 6287,
    "Ġartem": 6288,
    "Ġlegimus": 6289,
    "Ġdolo": 6290,
    "Ġsemin": 6291,
    "Ġpup": 6292,
    "Ġconfer": 6293,
    "ĠÐĹ": 6294,
    "Ġmathem": 6295,
    "Ġdocere": 6296,
    "Ġvale": 6297,
    "Ġpax": 6298,
    "Ġsanctae": 6299,
    "Ġtransi": 6300,
    "Ġmutare": 6301,
    "ĠMarcus": 6302,
    "Ġconiuncta": 6303,
    "Ġglori": 6304,
    "Ġtransf": 6305,
    "Ð½Ñĭ": 6306,
    "thag": 6307,
    "Ġvultis": 6308,
    "Ġampli": 6309,
    "Ġcopiae": 6310,
    "Ġcongru": 6311,
    "Ġequum": 6312,
    "ĠHier": 6313,
    "Ġauxili": 6314,
    "Ġmilites": 6315,
    "ĠEpicurus": 6316,
    "Ġcontempt": 6317,
    "Ġflumen": 6318,
    "Ġpraetorem": 6319,
    "Ġcaelest": 6320,
    "Ġabscond": 6321,
    "Ġtyran": 6322,
    "Ġpresbyter": 6323,
    "ĠAcademiae": 6324,
    "Ġsyllab": 6325,
    "varic": 6326,
    "ĠMCML": 6327,
    "Am": 6328,
    "ET": 6329,
    "ON": 6330,
    "ase": 6331,
    "co": 6332,
    "sk": 6333,
    "yp": 6334,
    "æľ": 6335,
    "Ġaustr": 6336,
    "Ġpeper": 6337,
    "Ġcave": 6338,
    "Ġmo": 6339,
    "ures": 6340,
    "Ġirac": 6341,
    "Ġiratus": 6342,
    "ligo": 6343,
    "ulch": 6344,
    "ibili": 6345,
    "olit": 6346,
    "ĠSa": 6347,
    "ĠCre": 6348,
    "ĠCato": 6349,
    "orumque": 6350,
    "Ġfacimus": 6351,
    "Ġhabitum": 6352,
    "Ġhabebant": 6353,
    "arumque": 6354,
    "ĠMiss": 6355,
    "Ġvident": 6356,
    "Ġidone": 6357,
    "Ġimit": 6358,
    "ĠVI": 6359,
    "Ġpotestis": 6360,
    "ĠGa": 6361,
    "ĠGu": 6362,
    "ĠGrat": 6363,
    "ĠBene": 6364,
    "Ġinterc": 6365,
    "Ġloquetur": 6366,
    "Ġterris": 6367,
    "Ġsubito": 6368,
    "Ġmultarum": 6369,
    "Ġnomini": 6370,
    "ĠâĢĿ": 6371,
    "enex": 6372,
    "Ġdecess": 6373,
    "Ġcomplex": 6374,
    "Ġdesert": 6375,
    "Ġoccur": 6376,
    "Ġpublice": 6377,
    "Ġquosdam": 6378,
    "Ġ2014": 6379,
    "Ġconsequens": 6380,
    "Ġinvenit": 6381,
    "ĠArd": 6382,
    "Ġingred": 6383,
    "Ġdignitatis": 6384,
    "ĠMariae": 6385,
    "Ġstudiis": 6386,
    "Ġstudebat": 6387,
    "Ġexistimo": 6388,
    "Ġspeciem": 6389,
    "Ġfamilias": 6390,
    "Ġpraesto": 6391,
    "Ġatting": 6392,
    "Ġmagistratus": 6393,
    "Ġingenio": 6394,
    "Ġscriptis": 6395,
    "Ġdiversis": 6396,
    "Ġsocietas": 6397,
    "Ġpervenit": 6398,
    "Ġdext": 6399,
    "ĠInsula": 6400,
    "Ġcontroversia": 6401,
    "ĠHelvet": 6402,
    "Ġfraud": 6403,
    "Ġmathemat": 6404,
    "('": 6405,
    "Hodie": 6406,
    "con": 6407,
    "cuius": 6408,
    "iatum": 6409,
    "vae": 6410,
    "xi": 6411,
    "Äĵ": 6412,
    "çļ": 6413,
    "Ġum": 6414,
    "Ĭ¤": 6415,
    "inos": 6416,
    "Ġpanem": 6417,
    "Ġnorm": 6418,
    "Ġinnumer": 6419,
    "Ġvine": 6420,
    "Ġvici": 6421,
    "Ġtales": 6422,
    "Ġforum": 6423,
    "Ġfundum": 6424,
    "etus": 6425,
    "unicip": 6426,
    "Ġutitur": 6427,
    "Ġexpon": 6428,
    "ĠSus": 6429,
    "Ġdicti": 6430,
    "Ġperdit": 6431,
    "Ġillust": 6432,
    "itura": 6433,
    "aturus": 6434,
    "Ġhabui": 6435,
    "ĠNap": 6436,
    "Ġverae": 6437,
    "Ġincomm": 6438,
    "Ġmaiore": 6439,
    "Ġaccepta": 6440,
    "ĠBon": 6441,
    "ĠBas": 6442,
    "Ġregiones": 6443,
    "Ġstup": 6444,
    "Ġars": 6445,
    "apropter": 6446,
    "Ġoculorum": 6447,
    "Ġsubd": 6448,
    "Ġmultitudo": 6449,
    "Ġmortis": 6450,
    "Ġdomibus": 6451,
    "Ġagunt": 6452,
    "Ġ[âĢ¦]": 6453,
    "Ġdiscern": 6454,
    "Ġrepugn": 6455,
    "Ġdedic": 6456,
    "Ġmortuo": 6457,
    "Ġcognitione": 6458,
    "entesque": 6459,
    "Ġinfam": 6460,
    "ĠAtl": 6461,
    "Ġmiserum": 6462,
    "isprud": 6463,
    "Ġvestig": 6464,
    "ĠGraecia": 6465,
    "Ġsensit": 6466,
    "ĠJos": 6467,
    "Ġpeto": 6468,
    "ĠConstant": 6469,
    "Ġsacra": 6470,
    "Ġcontinuo": 6471,
    "Ġmonast": 6472,
    "Ġmanduc": 6473,
    "Ġepistulae": 6474,
    "Ġfaciamus": 6475,
    "Ġaffirm": 6476,
    "Ġperpetuum": 6477,
    "Ġnimirum": 6478,
    "Ġbenedic": 6479,
    "Ġdioecesis": 6480,
    "ĠEsse": 6481,
    "Ġeditae": 6482,
    "Ġproelio": 6483,
    "ÑĩÐ°ÑģÑĤÐ¸": 6484,
    "ĠÐĹÐ°Ð¿": 6485,
    "):": 6486,
    "Cor": 6487,
    "IN": 6488,
    "OR": 6489,
    "her": 6490,
    "vs": 6491,
    "za": 6492,
    "²ł": 6493,
    "åħ": 6494,
    "ìĬ¤": 6495,
    "íĬ": 6496,
    "Ġç": 6497,
    "ated": 6498,
    "Ġmeret": 6499,
    "urp": 6500,
    "omp": 6501,
    "ary": 6502,
    "queb": 6503,
    "abiliter": 6504,
    "ĠEph": 6505,
    "ĠIup": 6506,
    "ĠSil": 6507,
    "Ġdictus": 6508,
    "estus": 6509,
    "Ġpersequ": 6510,
    "Ġpraevaric": 6511,
    "Ġgraec": 6512,
    "Ġcoeper": 6513,
    "ivus": 6514,
    "Ġquiddam": 6515,
    "ebar": 6516,
    "Ġual": 6517,
    "Ġopponitur": 6518,
    "avis": 6519,
    "Ġinclud": 6520,
    "ĠVII": 6521,
    "inceps": 6522,
    "Ġregibus": 6523,
    "Ġarti": 6524,
    "Ġloqueris": 6525,
    "Ġtermin": 6526,
    "ĠInde": 6527,
    "Ġalbus": 6528,
    "escit": 6529,
    "Ġpartis": 6530,
    "Ġputes": 6531,
    "erna": 6532,
    "Ġdivinum": 6533,
    "Ġrepraesent": 6534,
    "Ġdesper": 6535,
    "Ġplacere": 6536,
    "Ġvisa": 6537,
    "...]": 6538,
    "Ð¾Ð½": 6539,
    "Ġnesciebat": 6540,
    "ĠGraecorum": 6541,
    "Ġegreg": 6542,
    "Ġplurima": 6543,
    "Ġdignus": 6544,
    "ĠPrimus": 6545,
    "Ġaccipiat": 6546,
    "Ġmedic": 6547,
    "Ġwe": 6548,
    "actenus": 6549,
    "Ġ||": 6550,
    "Ġprovinciam": 6551,
    "athed": 6552,
    "Ġponit": 6553,
    "ĠQuisque": 6554,
    "Ġultimum": 6555,
    "Ġcondimentum": 6556,
    "Ġgravius": 6557,
    "Ġampl": 6558,
    "Ġexempla": 6559,
    "Ġnegotia": 6560,
    "Ġonus": 6561,
    "Ġpauca": 6562,
    "Ġcognovi": 6563,
    "ĠMosellae": 6564,
    "Ġaccedere": 6565,
    "Ġancilla": 6566,
    "ĠAthenis": 6567,
    "Ġperegr": 6568,
    "ĠPyrenae": 6569,
    "ĠEvangeli": 6570,
    "ĠÐĹÐ°Ð¿ÑĩÐ°ÑģÑĤÐ¸": 6571,
    "²łìĬ¤": 6572,
    "íĬ¸": 6573,
    "²łìĬ¤íĬ¸": 6574,
    "52": 6575,
    "63": 6576,
    "64": 6577,
    "Ap": 6578,
    "Lu": 6579,
    "Ph": 6580,
    "The": 6581,
    "Ñİ": 6582,
    "å®": 6583,
    "umentis": 6584,
    "Ġsel": 6585,
    "itibus": 6586,
    "itle": 6587,
    "Ġqualem": 6588,
    "Ġcras": 6589,
    "Ġcamp": 6590,
    "Ġvent": 6591,
    "Ġvesc": 6592,
    "Ġiact": 6593,
    "idia": 6594,
    "Ġnonnumquam": 6595,
    "oca": 6596,
    "ocr": 6597,
    "Ġredi": 6598,
    "alitas": 6599,
    "Ġconl": 6600,
    "Ġscito": 6601,
    "Ġsev": 6602,
    "ĠRec": 6603,
    "ĠTert": 6604,
    "ĠEaUNIT": 6605,
    "Ġintern": 6606,
    "Ġornam": 6607,
    "Ġlibera": 6608,
    "oquin": 6609,
    "Ġregionum": 6610,
    "Ġcreata": 6611,
    "Ġarte": 6612,
    "Ġvenerat": 6613,
    "ĠOffic": 6614,
    "Ġvitio": 6615,
    "Ġcapi": 6616,
    "Ġdederit": 6617,
    "Ġcorpor": 6618,
    "Ġ59": 6619,
    "Ġcaritate": 6620,
    "Ġnovit": 6621,
    "Ġprovid": 6622,
    "Ð°ÑĤ": 6623,
    "Ġdiligentia": 6624,
    "Ġpluris": 6625,
    "ÐµÑĢ": 6626,
    "Ġ98": 6627,
    "Ġintelligitur": 6628,
    "Ġemend": 6629,
    "Ġtransfer": 6630,
    "Ġfall": 6631,
    "Ġtimere": 6632,
    "Ġsermones": 6633,
    "Ġdifferunt": 6634,
    "ĠSicilia": 6635,
    "Ġproduct": 6636,
    "othec": 6637,
    "Ġhabeatur": 6638,
    "Ġprofess": 6639,
    "Ġbibere": 6640,
    "Ġvigil": 6641,
    "Ġquotidie": 6642,
    "Ġingenium": 6643,
    "Ġorientali": 6644,
    "Ġhistoriae": 6645,
    "Ġdiab": 6646,
    "ĠAttico": 6647,
    "Ġlinea": 6648,
    "Ġoccidentali": 6649,
    "ĠLigeris": 6650,
    "Ġlignum": 6651,
    "Ġinnoc": 6652,
    "Ġprodierunt": 6653,
    "Ġë²łìĬ¤íĬ¸": 6654,
    "ĠLotharingia": 6655,
    "Ġaustralis": 6656,
    "55": 6657,
    "68": 6658,
    "Car": 6659,
    "Er": 6660,
    "Ma": 6661,
    "Vol": 6662,
    "ez": 6663,
    "sunt": 6664,
    "Ã²": 6665,
    "Î¼": 6666,
    "ÑĨ": 6667,
    "Ø±": 6668,
    "áº": 6669,
    "Ġul": 6670,
    "Ġced": 6671,
    "Ġnullius": 6672,
    "Ġinu": 6673,
    "Ġinut": 6674,
    "Ġvesper": 6675,
    "Ġiun": 6676,
    "aremus": 6677,
    "ĠEius": 6678,
    "ĠEodem": 6679,
    "ĠAdam": 6680,
    "ratur": 6681,
    "istae": 6682,
    "ĠNaz": 6683,
    "uch": 6684,
    "Ġpotero": 6685,
    "ĠMis": 6686,
    "ĠMon": 6687,
    "ĠMor": 6688,
    "Ġabb": 6689,
    "Ġvidentes": 6690,
    "Ġuera": 6691,
    "ĠLond": 6692,
    "ĠHom": 6693,
    "ĠRem": 6694,
    "ĠRub": 6695,
    "Ġpariet": 6696,
    "Ġconsue": 6697,
    "Ġmoderat": 6698,
    "003": 6699,
    "Ġvirorum": 6700,
    "Ġprimae": 6701,
    "lev": 6702,
    "Ġmagnitudine": 6703,
    "ĠUr": 6704,
    "Ġduorum": 6705,
    "ressum": 6706,
    "Ġdebeo": 6707,
    "Ġagrum": 6708,
    "Ġsanguis": 6709,
    "Ġiurisprud": 6710,
    "itudines": 6711,
    "Ġdesertum": 6712,
    "Ġ2005": 6713,
    "Ġnovem": 6714,
    "Ġ79": 6715,
    "Ġfama": 6716,
    "Ġindustr": 6717,
    "Ġwh": 6718,
    "Ġwas": 6719,
    "Ġpraedicantur": 6720,
    "Ġlatinam": 6721,
    "ĠCaesari": 6722,
    "ĠFoederatarum": 6723,
    "Ġthis": 6724,
    "Ġperfectionem": 6725,
    "Ġquaestiones": 6726,
    "Ġefficere": 6727,
    "Ġconsules": 6728,
    "Ġgaudeo": 6729,
    "Ġunusquisque": 6730,
    "Ġlaboravit": 6731,
    "Ġseptu": 6732,
    "Ġauxilio": 6733,
    "Ġvidebitur": 6734,
    "Ġpossidet": 6735,
    "Atque": 6736,
    "ãĢĤ": 6737,
    "Ġtestamento": 6738,
    "Ġangelus": 6739,
    "2015": 6740,
    "ĠEpiscopus": 6741,
    "Ġrelicta": 6742,
    "Ġmembra": 6743,
    "ĠQuintus": 6744,
    "Ġpraeclare": 6745,
    "Ġpapa": 6746,
    "Ġthesa": 6747,
    "Il": 6748,
    "UM": 6749,
    "Vulgate": 6750,
    "huc": 6751,
    "ler": 6752,
    "psit": 6753,
    "tt": 6754,
    "Â°": 6755,
    "ÑĪ": 6756,
    "à¤": 6757,
    "Ġsursum": 6758,
    "Ġsenex": 6759,
    "inorum": 6760,
    "Ġpunct": 6761,
    "ony": 6762,
    "Ġcare": 6763,
    "Ġdari": 6764,
    "Ġinan": 6765,
    "Ġvias": 6766,
    "Ġvariis": 6767,
    "uth": 6768,
    "Ġiuli": 6769,
    "enas": 6770,
    "esima": 6771,
    "untia": 6772,
    "arit": 6773,
    "osse": 6774,
    "eci": 6775,
    "ulatus": 6776,
    "Ġprem": 6777,
    "Ġprol": 6778,
    "Ġredit": 6779,
    "Ġquaesumus": 6780,
    "ĠAqu": 6781,
    "ĠIov": 6782,
    "ĠDes": 6783,
    "Ġbas": 6784,
    "rati": 6785,
    "quamur": 6786,
    "Ġhaberem": 6787,
    "ivam": 6788,
    "Ġpoterant": 6789,
    "undis": 6790,
    "ebitur": 6791,
    "Ġviderit": 6792,
    "Ġvidetis": 6793,
    "Ġoperi": 6794,
    "avimus": 6795,
    "Ġconsid": 6796,
    "Ġconspic": 6797,
    "Ġcontentus": 6798,
    "Ġcommov": 6799,
    "Ġpatitur": 6800,
    "Ġstatum": 6801,
    "Ġspons": 6802,
    "ĠInd": 6803,
    "Ġoct": 6804,
    "Ġimpon": 6805,
    "Ġcuiusdam": 6806,
    "Ġaspic": 6807,
    "diet": 6808,
    "Ġoptimus": 6809,
    "Ġinvenerunt": 6810,
    "Ġdignitatem": 6811,
    "Ġaccipiunt": 6812,
    "Ġpertinuit": 6813,
    "Ġapert": 6814,
    "Ġcontrarium": 6815,
    "ĠSancto": 6816,
    "Ġmovet": 6817,
    "ardin": 6818,
    "Ġphilosophi": 6819,
    "Ġaeternitate": 6820,
    "ulpa": 6821,
    "Ġartic": 6822,
    "Ġnolo": 6823,
    "Ġclaritatem": 6824,
    "Ġproximum": 6825,
    "Ġingenii": 6826,
    "Ġinimici": 6827,
    "Ġ1945": 6828,
    "Ġ1999": 6829,
    "Ġmart": 6830,
    "Ġfortunae": 6831,
    "Ġasperiores": 6832,
    "Ġmentionem": 6833,
    "Ġplenum": 6834,
    "Ġconsecutus": 6835,
    "Ġorbis": 6836,
    "comp": 6837,
    "ï¼Į": 6838,
    "Ġgradu": 6839,
    "Respon": 6840,
    "ownload": 6841,
    "Ġaccurate": 6842,
    "ĠAtlant": 6843,
    "77": 6844,
    "Io": 6845,
    "Pater": 6846,
    "iani": 6847,
    "uia": 6848,
    "åı": 6849,
    "Ġà«¨": 6850,
    "ema": 6851,
    "Ġmass": 6852,
    "ork": 6853,
    "Ġinesse": 6854,
    "icia": 6855,
    "Ġvulp": 6856,
    "utionis": 6857,
    "rev": 6858,
    "Ġfas": 6859,
    "liane": 6860,
    "eni": 6861,
    "Ġlarg": 6862,
    "Ġexitum": 6863,
    "ĠElis": 6864,
    "ĠEquidem": 6865,
    "Ġperv": 6866,
    "iliam": 6867,
    "Ġsedul": 6868,
    "Ġhabentes": 6869,
    "Ġsci": 6870,
    "ĠMel": 6871,
    "ĠHis": 6872,
    "Ġcali": 6873,
    "ĠReli": 6874,
    "ĠForm": 6875,
    "ĠFilium": 6876,
    "ĠTub": 6877,
    "Ġtempest": 6878,
    "Ġaccommod": 6879,
    "Ġmodis": 6880,
    "Ġsecutus": 6881,
    "Ġstell": 6882,
    "ienter": 6883,
    "Ġvenio": 6884,
    "Ġloquere": 6885,
    "Ġaudio": 6886,
    "Ġdebuit": 6887,
    "Ġrationibus": 6888,
    "Ġistuc": 6889,
    "Ġcurr": 6890,
    "Ġiudicii": 6891,
    "Ġdivinae": 6892,
    "Ġ43": 6893,
    "Ġcognitio": 6894,
    "Ġpublicum": 6895,
    "Ġvivendum": 6896,
    "Ġdicitis": 6897,
    "Ġmoritur": 6898,
    "Ġfix": 6899,
    "Ġcaeter": 6900,
    "ĠArg": 6901,
    "Ġjuxta": 6902,
    "Ġegressus": 6903,
    "Ġimperdiet": 6904,
    "Ġnecessitas": 6905,
    "Ġvirtuti": 6906,
    "Ġpulv": 6907,
    "Ġoperatus": 6908,
    "true": 6909,
    "Ġvultus": 6910,
    "Ġhabeamus": 6911,
    "ĠGallia": 6912,
    "Ġhostium": 6913,
    "Ġsimilitudo": 6914,
    "Ġpugna": 6915,
    "ĠCarolus": 6916,
    "Ġacciderit": 6917,
    "âĢĻ,": 6918,
    "Ġuidetur": 6919,
    "Ġsonum": 6920,
    "Ġscriptores": 6921,
    "Ġschola": 6922,
    "Ġscelere": 6923,
    "Ġvacua": 6924,
    "Ġbestiis": 6925,
    "Ġecclesiasticae": 6926,
    "Ġauf": 6927,
    "Ġapparuit": 6928,
    "Ġconclusio": 6929,
    "Ġuirtut": 6930,
    "Ġpercipi": 6931,
    "ĠInferioris": 6932,
    "Ġmisericordiam": 6933,
    "????": 6934,
    "Ġdexteram": 6935,
    "Ġperhiberet": 6936,
    "Ġmatrimonium": 6937,
    "Ġcordis": 6938,
    "Ġarchiepiscopus": 6939,
    "inventory": 6940,
    "ĠBurgundia": 6941,
    "çļĦ": 6942,
    ",[": 6943,
    ".Â»": 6944,
    "84": 6945,
    "Ant": 6946,
    "aut": 6947,
    "iata": 6948,
    "lat": 6949,
    "ng": 6950,
    "ous": 6951,
    "post": 6952,
    "rid": 6953,
    "sur": 6954,
    "Ã±": 6955,
    "Ġ`": 6956,
    "ervi": 6957,
    "Ġsab": 6958,
    "ama": 6959,
    "amenta": 6960,
    "Ġdimis": 6961,
    "Ġmob": 6962,
    "Ġtel": 6963,
    "Ġiung": 6964,
    "Ġfil": 6965,
    "enae": 6966,
    "Ġher": 6967,
    "Ġhactenus": 6968,
    "old": 6969,
    "Ġadept": 6970,
    "ionys": 6971,
    "Ġsuad": 6972,
    "ĠEsa": 6973,
    "ĠSub": 6974,
    "ĠSap": 6975,
    "ĠDie": 6976,
    "Ġdices": 6977,
    "Ġdicetur": 6978,
    "Ġaliarum": 6979,
    "Quia": 6980,
    "Ġ118": 6981,
    "Ġfacillim": 6982,
    "Ġgess": 6983,
    "ĠMer": 6984,
    "Ġabomin": 6985,
    "Ġerub": 6986,
    "Ġaliquos": 6987,
    "iscere": 6988,
    "ĠGo": 6989,
    "Ġinterdic": 6990,
    "Ġregula": 6991,
    "ront": 6992,
    "venit": 6993,
    "abula": 6994,
    "Ġprimi": 6995,
    "Ġnosmet": 6996,
    "Ġagi": 6997,
    "Ġpraesc": 6998,
    "Ġvocat": 6999,
    "Ġputare": 7000,
    "Ġtabular": 7001,
    "Ġcapiunt": 7002,
    "Ġexpl": 7003,
    "Ġcivili": 7004,
    "Ġecclesie": 7005,
    "Ġnominavi": 7006,
    "Ġ44": 7007,
    "Ġinventa": 7008,
    "Ġnotitia": 7009,
    "Ġcredid": 7010,
    "Ġpraeterito": 7011,
    "Ġopport": 7012,
    "Ġvalere": 7013,
    "Ġvestibulum": 7014,
    "Ġ60": 7015,
    "illus": 7016,
    "Ġceter": 7017,
    "Ġconiun": 7018,
    "Ġodium": 7019,
    "Ġadiung": 7020,
    "rices": 7021,
    "evo": 7022,
    "angu": 7023,
    "Ġantiquae": 7024,
    "Ġbeatam": 7025,
    "Ġexplicat": 7026,
    "ĠPostquam": 7027,
    "Deus": 7028,
    "prop": 7029,
    "Ġaures": 7030,
    "Ġlevis": 7031,
    "Ġmilitibus": 7032,
    "ĠVenet": 7033,
    "Ġtribunalis": 7034,
    "ĠScipio": 7035,
    "Ġimagines": 7036,
    "ognosc": 7037,
    "Ġderel": 7038,
    "ĠPropter": 7039,
    "Ġcompetit": 7040,
    "rinsecus": 7041,
    "Ġiurisprudentiae": 7042,
    "69": 7043,
    "Dic": 7044,
    "Ea": 7045,
    "Lingu": 7046,
    "Th": 7047,
    "fex": 7048,
    "haec": 7049,
    "iÃ¦": 7050,
    "line": 7051,
    "ner": 7052,
    "roc": 7053,
    "uatur": 7054,
    "ÙĦ": 7055,
    "åĪ": 7056,
    "Ġeunt": 7057,
    "quia": 7058,
    "ink": 7059,
    "inii": 7060,
    "aet": 7061,
    "aequ": 7062,
    "Ġvect": 7063,
    "Ġtellus": 7064,
    "ecerit": 7065,
    "ularis": 7066,
    "Ġrenunt": 7067,
    "Ġlus": 7068,
    "Ġexitus": 7069,
    "ĠCa": 7070,
    "ĠColl": 7071,
    "Ġ100": 7072,
    "Ġfacite": 7073,
    "egit": 7074,
    "issae": 7075,
    "ortuus": 7076,
    "Ġveram": 7077,
    "Ġvidens": 7078,
    "Ġvideris": 7079,
    "Ġvidendum": 7080,
    "Ġris": 7081,
    "Ġrust": 7082,
    "Ġnepot": 7083,
    "ĠFr": 7084,
    "Ġconsu": 7085,
    "Ġconscrip": 7086,
    "Ġplor": 7087,
    "ĠBab": 7088,
    "Ġinterfect": 7089,
    "Ġorator": 7090,
    "eries": 7091,
    "ĠOc": 7092,
    "Ġmultorum": 7093,
    "Ġposter": 7094,
    "Ġagimus": 7095,
    "Ġagri": 7096,
    "Ġsuperius": 7097,
    "aliz": 7098,
    "Ġisdem": 7099,
    "Ġconclud": 7100,
    "Ġdiei": 7101,
    "Ġ52": 7102,
    "Ġ54": 7103,
    "Ġdicite": 7104,
    "Ġexcog": 7105,
    "ĠItaliam": 7106,
    "Ġuxori": 7107,
    "ĠGraeca": 7108,
    "Ġaetas": 7109,
    "Ġextran": 7110,
    "Ġofficii": 7111,
    "erba": 7112,
    "Ġexercit": 7113,
    "Ġfuturi": 7114,
    "Ġreliquis": 7115,
    "Ġ129": 7116,
    "Ġspecia": 7117,
    "Ġfallac": 7118,
    "Ġbeate": 7119,
    "ĠGermanicus": 7120,
    "Ġtribul": 7121,
    "ĠRegnum": 7122,
    "Ġauctoritas": 7123,
    "ĠÃł": 7124,
    "Ġcalc": 7125,
    "Ġhumanitas": 7126,
    "ĠIosue": 7127,
    "Ġproxime": 7128,
    "Ġmeliorem": 7129,
    "ĠCatil": 7130,
    "ĠSpiritu": 7131,
    "Ġutilitatis": 7132,
    "ĠHierusalem": 7133,
    "Ġscripsisse": 7134,
    "Ġsustent": 7135,
    "Ġreferre": 7136,
    "Ġsaepissime": 7137,
    "Ġrett": 7138,
    "Ġturpis": 7139,
    "ĠIosephus": 7140,
    "ĠClaud": 7141,
    "Ġfacultatem": 7142,
    "Ġdaturus": 7143,
    "Ġperspicere": 7144,
    "Ġabscon": 7145,
    "dixitque": 7146,
    "Ġinterfuit": 7147,
    "ĠIohannes": 7148,
    "Ġscholam": 7149,
    "ĠFreto": 7150,
    "àµį": 7151,
    "ĠAntioch": 7152,
    "ĠPhilipp": 7153,
    "Ġartifex": 7154,
    "54": 7155,
    "61": 7156,
    "78": 7157,
    "Cap": 7158,
    "Ent": 7159,
    "Sal": 7160,
    "des": 7161,
    "ment": 7162,
    "pit": 7163,
    "sch": 7164,
    "ville": 7165,
    "éĭ": 7166,
    "Ġae": 7167,
    "Ġsta": 7168,
    "Ġquicum": 7169,
    "Ġpom": 7170,
    "Ġpend": 7171,
    "Ġpurus": 7172,
    "onec": 7173,
    "Ġnationes": 7174,
    "aeque": 7175,
    "ement": 7176,
    "icere": 7177,
    "enique": 7178,
    "Ġheri": 7179,
    "idis": 7180,
    "acum": 7181,
    "Ġquamuis": 7182,
    "ĠCast": 7183,
    "terum": 7184,
    "Ġpraetere": 7185,
    "iturg": 7186,
    "raque": 7187,
    "Ġposuere": 7188,
    "ebuntur": 7189,
    "Ġvidete": 7190,
    "itavi": 7191,
    "Ġrisus": 7192,
    "Ġrhon": 7193,
    "Ġsitus": 7194,
    "ava": 7195,
    "ĠLong": 7196,
    "ĠFlor": 7197,
    "ĠFilio": 7198,
    "ĠFinn": 7199,
    "Ġsolebat": 7200,
    "Ġbonam": 7201,
    "Ġregim": 7202,
    "Ġnostrorum": 7203,
    "Ġlego": 7204,
    "Ġlegata": 7205,
    "Ġ1918": 7206,
    "Ġmanuum": 7207,
    "Ġannus": 7208,
    "ĠUnum": 7209,
    "entias": 7210,
    "Ġvocatum": 7211,
    "Ġcuram": 7212,
    "Ġexplor": 7213,
    "Ġexpedit": 7214,
    "Ġecclesiarum": 7215,
    "Ġ42": 7216,
    "Ġdecimo": 7217,
    "Ġtotus": 7218,
    "elix": 7219,
    "Ġinventum": 7220,
    "Ġmaiori": 7221,
    "Ġpraeceper": 7222,
    "Ġcarm": 7223,
    "Ġsignis": 7224,
    "Ġvideos": 7225,
    "Ġprobarent": 7226,
    "Ġfrom": 7227,
    "Ġdiligentissime": 7228,
    "Ġvictus": 7229,
    "ĠAdm": 7230,
    "Ġbella": 7231,
    "Ġsacri": 7232,
    "Ġmulieris": 7233,
    "Ġimmut": 7234,
    "ĠSanctae": 7235,
    "Ġepiscopo": 7236,
    "Ġmoveri": 7237,
    "Ġultima": 7238,
    "Ġconveniat": 7239,
    "Ġsingulos": 7240,
    "Ġpulchrum": 7241,
    "Ġaeternam": 7242,
    "Ġreferuntur": 7243,
    "Ġreddet": 7244,
    "ĠPlanc": 7245,
    "ĠPlato": 7246,
    "Ġpromitt": 7247,
    "Ġbrevis": 7248,
    "Ġaccidere": 7249,
    "Ġdescrib": 7250,
    "Ġlacinia": 7251,
    "Ġiacet": 7252,
    "Ġfoederis": 7253,
    "ĠPompon": 7254,
    "option": 7255,
    "Ġmentitum": 7256,
    "ĠClod": 7257,
    "ĠBritannia": 7258,
    "Ġprudentia": 7259,
    "Italiane": 7260,
    "Ġsanguine": 7261,
    "Ġmyster": 7262,
    "Ġaegrot": 7263,
    "Ġvictoria": 7264,
    "Ġdiscessimus": 7265,
    "eunte": 7266,
    "Ġnexus": 7267,
    "Ġperferendis": 7268,
    "Ġquinto": 7269,
    "attoos": 7270,
    "ĠEnnius": 7271,
    "AR": 7272,
    "Dec": 7273,
    "Municip": 7274,
    "Sec": 7275,
    "bum": 7276,
    "nec": 7277,
    "niae": 7278,
    "nunc": 7279,
    "uat": 7280,
    "verit": 7281,
    "Î¯": 7282,
    "Ġosc": 7283,
    "Ġ\\/": 7284,
    "Ġequit": 7285,
    "itetur": 7286,
    "inati": 7287,
    "Ġquales": 7288,
    "atas": 7289,
    "Ġmedit": 7290,
    "utate": 7291,
    "Ġferunt": 7292,
    "Ġfert": 7293,
    "Ġforis": 7294,
    "ĠEo": 7295,
    "ĠAv": 7296,
    "ĠSat": 7297,
    "ĠSint": 7298,
    "ĠCaec": 7299,
    "ipat": 7300,
    "Ġperp": 7301,
    "ĠPos": 7302,
    "ostoli": 7303,
    "Ġpotuerit": 7304,
    "issus": 7305,
    "Ġquolibet": 7306,
    "Ġpossemus": 7307,
    "Ġabest": 7308,
    "Ġopes": 7309,
    "averis": 7310,
    "ultur": 7311,
    "empe": 7312,
    "Ġaliquae": 7313,
    "Ġvolui": 7314,
    "ĠTibi": 7315,
    "ĠVIII": 7316,
    "Ġacceperit": 7317,
    "ĠBav": 7318,
    "Ġoritur": 7319,
    "erique": 7320,
    "Ġlegati": 7321,
    "Ġterre": 7322,
    "irent": 7323,
    "Ġauditum": 7324,
    "Ġscribendi": 7325,
    "tinam": 7326,
    "Ġinsulam": 7327,
    "Ġmatre": 7328,
    "Ġmatris": 7329,
    "Ġ2015": 7330,
    "upid": 7331,
    "Ġinveniuntur": 7332,
    "Ġreddit": 7333,
    "Ġduces": 7334,
    "illis": 7335,
    "Ġdiligere": 7336,
    "Ġ80": 7337,
    "Ġvict": 7338,
    "Ġcognoscitur": 7339,
    "Ġmille": 7340,
    "Ġfacturum": 7341,
    "Ġhabeas": 7342,
    "ĠIdus": 7343,
    "Ġdeprec": 7344,
    "Ġcopiis": 7345,
    "Ġpauci": 7346,
    "Ġopinione": 7347,
    "ĠIudaei": 7348,
    "Ġpueros": 7349,
    "ĠHispaniae": 7350,
    "Ġiaculis": 7351,
    "Ġoffend": 7352,
    "Ġrelati": 7353,
    "Ġirasc": 7354,
    "Itaque": 7355,
    "Ġortus": 7356,
    "Ġoves": 7357,
    "Ġoccasionem": 7358,
    "ĠZenonem": 7359,
    "ĠÐ¿ÑĢ": 7360,
    "ĠIusto": 7361,
    "Ġinsipiens": 7362,
    "Ġdiutius": 7363,
    "Ġmendacium": 7364,
    "Ġredempt": 7365,
    "ĠâĢĿ.": 7366,
    "Ġvulputate": 7367,
    "87": 7368,
    "AN": 7369,
    "EN": 7370,
    "Mihi": 7371,
    "Sunt": 7372,
    "disc": 7373,
    "ood": 7374,
    "tol": 7375,
    "Ãİ": 7376,
    "Ð·": 7377,
    "Ùħ": 7378,
    "æĹ": 7379,
    "Ġsurre": 7380,
    "usta": 7381,
    "inius": 7382,
    "inio": 7383,
    "Ġpare": 7384,
    "onice": 7385,
    "Ġcepit": 7386,
    "Ġnou": 7387,
    "Ġdiam": 7388,
    "Ġmos": 7389,
    "orio": 7390,
    "Ġinitium": 7391,
    "Ġtw": 7392,
    "Ġtet": 7393,
    "Ġtulit": 7394,
    "utam": 7395,
    "enum": 7396,
    "esis": 7397,
    "idam": 7398,
    "Ġadim": 7399,
    "Ġadol": 7400,
    "Ġlug": 7401,
    "ileg": 7402,
    "otam": 7403,
    "opere": 7404,
    "alitatem": 7405,
    "Ġexcip": 7406,
    "Ġexilium": 7407,
    "ĠDan": 7408,
    "ĠDionys": 7409,
    "Ġge": 7410,
    "Ġgens": 7411,
    "Ġcoel": 7412,
    "Ġhaberent": 7413,
    "ĠNor": 7414,
    "Ġpotuisse": 7415,
    "Ġveri": 7416,
    "Ġverec": 7417,
    "Ġridic": 7418,
    "Ġambit": 7419,
    "Ġmaer": 7420,
    "ĠBellum": 7421,
    "Ġconturb": 7422,
    "Ġcommerc": 7423,
    "Ġinterim": 7424,
    "Ġfuimus": 7425,
    "Ġstatus": 7426,
    "ientium": 7427,
    "Ġloquatur": 7428,
    "Ġquisquis": 7429,
    "Ġaudita": 7430,
    "ĠUs": 7431,
    "Ġputem": 7432,
    "aliae": 7433,
    "Ġ41": 7434,
    "Ġsentiat": 7435,
    "ĠChal": 7436,
    "Ġ51": 7437,
    "Ð°Ð»": 7438,
    "ĠLatinum": 7439,
    "Ġvestris": 7440,
    "entiarum": 7441,
    "rehendi": 7442,
    "ĠIsa": 7443,
    "Ġiussu": 7444,
    "Ġtransit": 7445,
    "Ġdiligentius": 7446,
    "ĠQuaedam": 7447,
    "Ġintellegit": 7448,
    "Ġsaeculorum": 7449,
    "Ġaccipe": 7450,
    "ÐµÐ»": 7451,
    "Ġ120": 7452,
    "Ġconstitui": 7453,
    "ĠExerc": 7454,
    "Ġpropriae": 7455,
    "astis": 7456,
    "âĢĿ,": 7457,
    "Ġpond": 7458,
    "criptum": 7459,
    "Ġexsp": 7460,
    "Ġuniversis": 7461,
    "Ġantiquis": 7462,
    "Ġantiquos": 7463,
    "Ġaudierunt": 7464,
    "ĠAntonius": 7465,
    "Ġconsuetudine": 7466,
    "Ġopinio": 7467,
    "ĠLiber": 7468,
    "Ġexspecto": 7469,
    "Ġiniquitatem": 7470,
    "Ġquatenus": 7471,
    "Ġfelis": 7472,
    "ĠUrbes": 7473,
    "Ġhaeret": 7474,
    "Ġdialect": 7475,
    "Ġdepositum": 7476,
    "Ġbenedict": 7477,
    "Ġprosunt": 7478,
    "Ġspectat": 7479,
    "Ġextrema": 7480,
    "Omnes": 7481,
    "Ġmisericordia": 7482,
    "ĠIste": 7483,
    "ĠCommun": 7484,
    "Ġoccurrit": 7485,
    "Ġpraeceptis": 7486,
    "Ġincredibile": 7487,
    "ĠSocrates": 7488,
    "ĠThomas": 7489,
    "Ġmiraretur": 7490,
    "ĠBerol": 7491,
    "ĠGulielmus": 7492,
    "Ġexcels": 7493,
    "ĠSelectae": 7494,
    "Ġsedulitatem": 7495,
    "Ġrhoncus": 7496,
    "'s": 7497,
    "Neque": 7498,
    "Pro": 7499,
    "auit": 7500,
    "berg": 7501,
    "hoc": 7502,
    "xerit": 7503,
    "Ãº": 7504,
    "erium": 7505,
    "Ġseg": 7506,
    "amin": 7507,
    "amini": 7508,
    "Ġcense": 7509,
    "Ġdisi": 7510,
    "Ġtul": 7511,
    "Ġiei": 7512,
    "imos": 7513,
    "Ġhii": 7514,
    "osum": 7515,
    "ulpt": 7516,
    "ulari": 7517,
    "olite": 7518,
    "Ġadesse": 7519,
    "elop": 7520,
    "Ġdeest": 7521,
    "Ġexh": 7522,
    "ĠAur": 7523,
    "ĠCali": 7524,
    "Ġdicenda": 7525,
    "Ġillas": 7526,
    "ĠPont": 7527,
    "Ġcoerc": 7528,
    "Ġscitis": 7529,
    "Ġvidisti": 7530,
    "ellis": 7531,
    "ĠHinc": 7532,
    "Ġamis": 7533,
    "Ġpaginam": 7534,
    "ĠFilii": 7535,
    "ĠTre": 7536,
    "ĠTri": 7537,
    "ĠVerg": 7538,
    "ĠVultur": 7539,
    "Ġsolemus": 7540,
    "Ġacceperunt": 7541,
    "Ġcommodo": 7542,
    "Ġsecret": 7543,
    "Ġregionibus": 7544,
    "Ġcrede": 7545,
    "lesimo": 7546,
    "Ġloquendi": 7547,
    "Ġloquaris": 7548,
    "Ġmagnis": 7549,
    "eretis": 7550,
    "Ġquemque": 7551,
    "Ġagric": 7552,
    "Ġacquir": 7553,
    "Ġeamque": 7554,
    "Ġremitt": 7555,
    "Ġmalorum": 7556,
    "Ġdives": 7557,
    "Ġpopulorum": 7558,
    "Ġservare": 7559,
    "Ġmiseri": 7560,
    "...)": 7561,
    "Ġrespondi": 7562,
    "ĠArab": 7563,
    "Ġquaereremus": 7564,
    "Ġplurimi": 7565,
    "Ġdigni": 7566,
    "Ġlaude": 7567,
    "Ġfactis": 7568,
    "\":[": 7569,
    "ify": 7570,
    "Ġadmodum": 7571,
    "ĠPhilosoph": 7572,
    "Ġsermonis": 7573,
    "Ġexsist": 7574,
    "Ġconveniunt": 7575,
    "Ġeffici": 7576,
    "ember": 7577,
    "Ġobsc": 7578,
    "Ġsecundam": 7579,
    "Ġparvum": 7580,
    "Ġindicia": 7581,
    "ĠNovi": 7582,
    "Ġequus": 7583,
    "Ġinimicus": 7584,
    "ĠMagni": 7585,
    "ĠAutem": 7586,
    "Ġmaritus": 7587,
    "Ġgestarum": 7588,
    "ĠPaulo": 7589,
    "Ġsororem": 7590,
    "Ġaffectum": 7591,
    "Ġvereor": 7592,
    "Ġparentibus": 7593,
    "Ġtempt": 7594,
    "Ġpraesidio": 7595,
    "Ġmusicae": 7596,
    "ĠEpiscopi": 7597,
    "Ġgenerationes": 7598,
    "ĠPompeius": 7599,
    "ĠInterrog": 7600,
    "Ġhabebis": 7601,
    "Ġitinere": 7602,
    "ĠDixitque": 7603,
    "Ġibidem": 7604,
    "Ġnigrum": 7605,
    "ĠHenricus": 7606,
    "Ġomnipotens": 7607,
    "Ġfermentum": 7608,
    "Ġsatiet": 7609,
    "Ġmeretric": 7610,
    "Ġieiun": 7611,
    "58": 7612,
    "Im": 7613,
    "gypt": 7614,
    "hel": 7615,
    "ierit": 7616,
    "out": 7617,
    "we": 7618,
    "Ð³": 7619,
    "Øª": 7620,
    "Ġeun": 7621,
    "Ġeuis": 7622,
    "itare": 7623,
    "usa": 7624,
    "ondam": 7625,
    "Ġciu": 7626,
    "oro": 7627,
    "Ġtent": 7628,
    "Ġif": 7629,
    "retum": 7630,
    "Ġfunct": 7631,
    "idus": 7632,
    "Ġpridem": 7633,
    "Ġlep": 7634,
    "aculo": 7635,
    "Ġconj": 7636,
    "Ġexim": 7637,
    "ĠEos": 7638,
    "ĠSar": 7639,
    "ĠSPD": 7640,
    "Ġdirig": 7641,
    "Ġfacinus": 7642,
    "Ġsedem": 7643,
    "Ġcomedit": 7644,
    "ĠHa": 7645,
    "ĠHanno": 7646,
    "ultum": 7647,
    "oreet": 7648,
    "Ġaliquibus": 7649,
    "isce": 7650,
    "ĠTra": 7651,
    "Ġessemus": 7652,
    "ĠGab": 7653,
    "Ġintr": 7654,
    "ĠBa": 7655,
    "Ġoro": 7656,
    "rang": 7657,
    "Ġantec": 7658,
    "Ġmultitudinis": 7659,
    "Ġimple": 7660,
    "Ġcuiuscumque": 7661,
    "Ġdebes": 7662,
    "Ġtrin": 7663,
    "Ġdesunt": 7664,
    "Ġ2002": 7665,
    "Ġconfund": 7666,
    "ĠChana": 7667,
    "Ġpublico": 7668,
    "Ġ53": 7669,
    "Ġtenu": 7670,
    "Ġplacerat": 7671,
    "Ġmisera": 7672,
    "Ġnovae": 7673,
    "Ġsapere": 7674,
    "upta": 7675,
    "Ġpaulum": 7676,
    "Ġprincipibus": 7677,
    "Ġintellegitur": 7678,
    "ĠEcclesiam": 7679,
    "Ġstudiorum": 7680,
    "Ġsuppon": 7681,
    "actio": 7682,
    "Ġglorific": 7683,
    "Ġaquarum": 7684,
    "Ġquinta": 7685,
    "Ġdispens": 7686,
    "Ġoperatur": 7687,
    "Ġponere": 7688,
    "Ġponitur": 7689,
    "Ġnoctem": 7690,
    "Ġdona": 7691,
    "Ġvultum": 7692,
    "Ġcondidit": 7693,
    "Ġargentum": 7694,
    "Ġmiseros": 7695,
    "Ġreddidit": 7696,
    "ĠGallic": 7697,
    "Ġincipiunt": 7698,
    "Ġopinionem": 7699,
    "Ð°Ð·": 7700,
    "Ġscriptura": 7701,
    "Ġarbitrium": 7702,
    "Ġauribus": 7703,
    "Ġperduc": 7704,
    "rentur": 7705,
    "Ġmulieribus": 7706,
    "Ġpraemium": 7707,
    "Ġhistoria": 7708,
    "Ġpoenit": 7709,
    "Ġsufficit": 7710,
    "ĠOrdin": 7711,
    "Ġoperationem": 7712,
    "Ġconcessum": 7713,
    "Ġimperatoris": 7714,
    "Ġsanguinem": 7715,
    "ĠPotest": 7716,
    "Ġpraeposita": 7717,
    "Ġinquantum": 7718,
    "Ġuita": 7719,
    "Ġmerito": 7720,
    "Ġstipul": 7721,
    "Ġedictum": 7722,
    "ĠTarrac": 7723,
    "ĠAmericanus": 7724,
    "Ġcitius": 7725,
    "Ġresurrect": 7726,
    "ĠÐ½Ð°": 7727,
    "ĠPorro": 7728,
    "Ġtranseunt": 7729,
    "Ġcentesimae": 7730,
    "Ġdidici": 7731,
    "Germanice": 7732,
    "ĠBabyl": 7733,
    "Ġeuismod": 7734,
    "73": 7735,
    "Aut": 7736,
    "Co": 7737,
    "Cic": 7738,
    "fuit": 7739,
    "pere": 7740,
    "pro": 7741,
    "piter": 7742,
    "prae": 7743,
    "Ġcathed": 7744,
    "aeus": 7745,
    "emin": 7746,
    "Ġvarius": 7747,
    "Ġtort": 7748,
    "Ġestis": 7749,
    "ome": 7750,
    "oman": 7751,
    "esne": 7752,
    "Ġhend": 7753,
    "ode": 7754,
    "anct": 7755,
    "anne": 7756,
    "Ġadj": 7757,
    "Ġlup": 7758,
    "ild": 7759,
    "Ġdeg": 7760,
    "Ġdepon": 7761,
    "ĠCass": 7762,
    "Ġdiis": 7763,
    "Ġmeh": 7764,
    "ectis": 7765,
    "Ġquidque": 7766,
    "Ġabst": 7767,
    "Ġrub": 7768,
    "Ġrhet": 7769,
    "ĠLam": 7770,
    "ellam": 7771,
    "ĠHort": 7772,
    "Ġamen": 7773,
    "ĠRex": 7774,
    "Ġprout": 7775,
    "Ġproinde": 7776,
    "Ġincom": 7777,
    "Ġincend": 7778,
    "Ġvolebat": 7779,
    "Ġconsilii": 7780,
    "Ġpotestatis": 7781,
    "Ġpropius": 7782,
    "Ġeoque": 7783,
    "Ġanimarum": 7784,
    "Ġcreavit": 7785,
    "ientis": 7786,
    "Ġcorda": 7787,
    "Ġlegitur": 7788,
    "Ġloqueretur": 7789,
    "Ġsubj": 7790,
    "escere": 7791,
    "Ġimprim": 7792,
    "Ġcommuniter": 7793,
    "Ġagat": 7794,
    "Ġvocibus": 7795,
    "Ġremiss": 7796,
    "Ġcivem": 7797,
    "Ġcivile": 7798,
    "Ġ[...]": 7799,
    "Ġiuri": 7800,
    "Ġmortuis": 7801,
    "Ġcognita": 7802,
    "Ġsentiam": 7803,
    "Ġsententiis": 7804,
    "Ġfortis": 7805,
    "Ġoccidit": 7806,
    "Ġscriberem": 7807,
    "Ġcorporibus": 7808,
    "iosis": 7809,
    "retiva": 7810,
    "Ġclaud": 7811,
    "Ġinsc": 7812,
    "Ġvideamur": 7813,
    "Ġmolestum": 7814,
    "Ġprobatur": 7815,
    "Ġvestram": 7816,
    "Ġdignitas": 7817,
    "ĠPrincip": 7818,
    "Ġsapientem": 7819,
    "Ġappellant": 7820,
    "Ġsenator": 7821,
    "Ġlongus": 7822,
    "Ġprocess": 7823,
    "Ġintelligentia": 7824,
    "Ġmensa": 7825,
    "Ġpeccato": 7826,
    "Ġtransm": 7827,
    "Ġostium": 7828,
    "ĠIoach": 7829,
    "Ġdistrib": 7830,
    "Ġluce": 7831,
    "Ġprodesse": 7832,
    "ĠRegni": 7833,
    "Ġresponderunt": 7834,
    "Ġreform": 7835,
    "letum": 7836,
    "Ġhumanae": 7837,
    "Ġsimilem": 7838,
    "Ġmagistri": 7839,
    "Ġsuccessor": 7840,
    "Ġconval": 7841,
    "Ġquodammodo": 7842,
    "Ġpedibus": 7843,
    "Ġevenit": 7844,
    "ĠIacobus": 7845,
    "Ġpretio": 7846,
    "Ġvincit": 7847,
    "Ġdifferentiae": 7848,
    "ĠPrimo": 7849,
    "ĠPompei": 7850,
    "Ġtabernaculum": 7851,
    "Ġdoctrinam": 7852,
    "Ġnemini": 7853,
    "ĀĀĀĀ": 7854,
    "ĠSuec": 7855,
    "Ġservitutem": 7856,
    "ĠDietae": 7857,
    "Ġboreali": 7858,
    "ĠAristoteles": 7859,
    "Ġanteposuerit": 7860,
    "Ġseptuaginta": 7861,
    "Municipia": 7862,
    "discretiva": 7863,
    "ĠChanaan": 7864,
    "Die": 7865,
    "OL": 7866,
    "Or": 7867,
    "Tum": 7868,
    "Ubi": 7869,
    "br": 7870,
    "eff": 7871,
    "fl": 7872,
    "hinc": 7873,
    "kr": 7874,
    "rist": 7875,
    "sam": 7876,
    "variant": 7877,
    "Ïħ": 7878,
    "åľ": 7879,
    "Ġ!": 7880,
    "Ġeidem": 7881,
    "Ġsax": 7882,
    "inter": 7883,
    "Ġpoll": 7884,
    "onibus": 7885,
    "Ġnatae": 7886,
    "aev": 7887,
    "rept": 7888,
    "imenta": 7889,
    "iare": 7890,
    "acc": 7891,
    "ĠEli": 7892,
    "esta": 7893,
    "ĠPop": 7894,
    "ensus": 7895,
    "Ġhabuerit": 7896,
    "ĠNob": 7897,
    "ĠMess": 7898,
    "Ġcomper": 7899,
    "Ġvelint": 7900,
    "Ġvidero": 7901,
    "Ġuere": 7902,
    "Ġeros": 7903,
    "ĠLic": 7904,
    "ĠHeli": 7905,
    "ĠHung": 7906,
    "ĠTen": 7907,
    "ĠTim": 7908,
    "ĠGad": 7909,
    "Ġsecuri": 7910,
    "Ġarmis": 7911,
    "isii": 7912,
    "Ġveniret": 7913,
    "ĠOst": 7914,
    "escunt": 7915,
    "Ġnaturale": 7916,
    "Ġcommunibus": 7917,
    "Ġrationis": 7918,
    "Ġpartium": 7919,
    "cipit": 7920,
    "Ġmalitiae": 7921,
    "Ġreput": 7922,
    "Ġmaximo": 7923,
    "Ġmagisque": 7924,
    "Ġsentit": 7925,
    "Ġoccisus": 7926,
    "Ġgratissimum": 7927,
    "Ġinferos": 7928,
    "Ġfidel": 7929,
    "Ġpersonis": 7930,
    "Ġmiserunt": 7931,
    "Ġmoriens": 7932,
    "ienses": 7933,
    "Ġvaleat": 7934,
    "ĠGraecae": 7935,
    "Ġ68": 7936,
    "Ġegit": 7937,
    "Ġegressi": 7938,
    "Ġquandoque": 7939,
    "Ġ89": 7940,
    "Ġsaeculis": 7941,
    "Ġfuturo": 7942,
    "Ġweb": 7943,
    "actis": 7944,
    "Ġsenatum": 7945,
    "Ġmiles": 7946,
    "ĠBrutus": 7947,
    "Ġpeccare": 7948,
    "ãģĦ": 7949,
    "Ġsignificant": 7950,
    "Ġsignificatur": 7951,
    "ĠXen": 7952,
    "Ġsociis": 7953,
    "ÑģÐº": 7954,
    "Ð½Ð¾": 7955,
    "Ġadiunct": 7956,
    "ĠIoas": 7957,
    "Ġluctus": 7958,
    "Ġdonavit": 7959,
    "Ġferendum": 7960,
    "Ġexplicari": 7961,
    "Ġchar": 7962,
    "Ġseptentr": 7963,
    "Ġdelectat": 7964,
    "Ġvigesima": 7965,
    "Ġquotiens": 7966,
    "Ġfuror": 7967,
    "Ġfurtum": 7968,
    "ĠIudaeos": 7969,
    "Ġmitto": 7970,
    "Ġaccepisse": 7971,
    "Ġterritor": 7972,
    "Ġsonus": 7973,
    "Ġcenses": 7974,
    "ĠMosen": 7975,
    "Ġfacilisis": 7976,
    "Ġhiem": 7977,
    "Ġfestin": 7978,
    "Ġhabitatores": 7979,
    "Ġpraetore": 7980,
    "ĠImperium": 7981,
    "Ġcomprehenderunt": 7982,
    "Ġvocabulum": 7983,
    "Ġcecidit": 7984,
    "Ġcoepi": 7985,
    "Ġsustinere": 7986,
    "Praeterea": 7987,
    "Postquam": 7988,
    "Ġelev": 7989,
    "ĠFortasse": 7990,
    "Ġtriumph": 7991,
    "Ġflagit": 7992,
    "ĠVestibulum": 7993,
    "ĠBelg": 7994,
    "Ġnonnulli": 7995,
    "Ġabsurdum": 7996,
    "Ġobsecro": 7997,
    "Ġincommut": 7998,
    "Volupt": 7999,
    "ĠEsau": 8000,
    "ipatet": 8001,
    "ĠHannover": 8002,
    "ĠTarraconensi": 8003,
    "65": 8004,
    "71": 8005,
    "Cont": 8006,
    "OX": 8007,
    "ber": 8008,
    "hab": 8009,
    "nia": 8010,
    "rerit": 8011,
    "Ã§": 8012,
    "ä½": 8013,
    "æĪ": 8014,
    "æĸ": 8015,
    "Ġ~": 8016,
    "eramus": 8017,
    "Ġastr": 8018,
    "Ġsord": 8019,
    "Ġquendam": 8020,
    "Ġquondam": 8021,
    "Ġpest": 8022,
    "ĠcÃ¦": 8023,
    "Ġdant": 8024,
    "Ġdaemon": 8025,
    "iciam": 8026,
    "Ġtend": 8027,
    "esque": 8028,
    "eti": 8029,
    "aram": 8030,
    "anas": 8031,
    "ecun": 8032,
    "ibiles": 8033,
    "oct": 8034,
    "Ġuter": 8035,
    "ionalis": 8036,
    "Ġconuen": 8037,
    "Ġexstitit": 8038,
    "ĠAct": 8039,
    "ĠSatis": 8040,
    "Ġmearum": 8041,
    "Ġdicet": 8042,
    "Ġdicerem": 8043,
    "Ġ119": 8044,
    "Ġbo": 8045,
    "ĠQuos": 8046,
    "ensium": 8047,
    "Ġhabuerunt": 8048,
    "uchi": 8049,
    "ĠMD": 8050,
    "ĠMass": 8051,
    "Ġapta": 8052,
    "Ġveris": 8053,
    "Ġuult": 8054,
    "ĠLaced": 8055,
    "ĠHunc": 8056,
    "ĠFrat": 8057,
    "Ġincogn": 8058,
    "Ġplerique": 8059,
    "ĠGre": 8060,
    "Ġlibentius": 8061,
    "ienti": 8062,
    "Ġspoli": 8063,
    "Ġusquam": 8064,
    "Ġincolum": 8065,
    "Ġaguntur": 8066,
    "Ġacquis": 8067,
    "Ġpraesentibus": 8068,
    "Ġvocantur": 8069,
    "Ġexpul": 8070,
    "Ġdiscrim": 8071,
    "Ġiurid": 8072,
    "Ġappos": 8073,
    "ĠQuidquid": 8074,
    "ĠÐ¼": 8075,
    "Ġeisdem": 8076,
    "Ġpraetermitt": 8077,
    "Ġnovissimo": 8078,
    "Ġnegare": 8079,
    "Ġsumme": 8080,
    "Ġfugere": 8081,
    "Ġ75": 8082,
    "ĠArt": 8083,
    "1088": 8084,
    "Ġ63": 8085,
    "Ġimperatore": 8086,
    "Ġ86": 8087,
    "Ġhumani": 8088,
    "Ġfuturus": 8089,
    "Ġignem": 8090,
    "Ġceteros": 8091,
    "Â»,": 8092,
    "Ġmuneribus": 8093,
    "Ġlatina": 8094,
    "ifend": 8095,
    "Ġostendere": 8096,
    "Ġtheolog": 8097,
    "ĠIoannis": 8098,
    "Ġconditum": 8099,
    "Ġceler": 8100,
    "ationalis": 8101,
    "Ġprofessor": 8102,
    "Ġdissol": 8103,
    "Ġnegotii": 8104,
    "Ġdictae": 8105,
    "ĠCurabitur": 8106,
    "Ġhostibus": 8107,
    "erebat": 8108,
    "Ġsalutis": 8109,
    "Ġmittere": 8110,
    "Ġsucced": 8111,
    "ĠMagna": 8112,
    "ĠPeripatet": 8113,
    "Ġsinu": 8114,
    "Ġscripsisti": 8115,
    "ĠAugustus": 8116,
    "Ġheredem": 8117,
    "Ġpropheta": 8118,
    "Ġdifferentiam": 8119,
    "Ġtalibus": 8120,
    "ĠCorne": 8121,
    "Ġjusto": 8122,
    "Ġstultus": 8123,
    "Ġambo": 8124,
    "Ġsepultus": 8125,
    "Ġancillam": 8126,
    "Ġancillae": 8127,
    "ÏĦÎ¿": 8128,
    "Ġxx": 8129,
    "Ġortum": 8130,
    "Ġcadere": 8131,
    "Ġurna": 8132,
    "ĠSuperioris": 8133,
    "ĠVoluptatem": 8134,
    "Ġfiduciam": 8135,
    "Ġeleifend": 8136,
    "Ġligula": 8137,
    "Ġfructu": 8138,
    "Ġconsistit": 8139,
    "Ġgrand": 8140,
    "Aliquam": 8141,
    "ogallice": 8142,
    "Ġsinistram": 8143,
    "Ioannes": 8144,
    "Ġhendrerit": 8145,
    "ĠLacedaemon": 8146,
    "AC": 8147,
    "AL": 8148,
    "DU": 8149,
    "bl": 8150,
    "cem": 8151,
    "cunque": 8152,
    "form": 8153,
    "ja": 8154,
    "oz": 8155,
    "rarum": 8156,
    "sil": 8157,
    "title": 8158,
    "uad": 8159,
    "vam": 8160,
    "Ġ#": 8161,
    "Ġcanc": 8162,
    "aei": 8163,
    "aeter": 8164,
    "emiae": 8165,
    "Ġmit": 8166,
    "Ġmaris": 8167,
    "orus": 8168,
    "Ġinj": 8169,
    "Ġinl": 8170,
    "iculo": 8171,
    "urarum": 8172,
    "Ġvendit": 8173,
    "Ġiug": 8174,
    "Ġfict": 8175,
    "omach": 8176,
    "aron": 8177,
    "ĠprÃ¦": 8178,
    "Ġadp": 8179,
    "acumque": 8180,
    "Ġutendum": 8181,
    "Ġdeinceps": 8182,
    "ĠEm": 8183,
    "ĠSer": 8184,
    "Ġdirect": 8185,
    "Ġperag": 8186,
    "Ġcoha": 8187,
    "ĠQuapropter": 8188,
    "iro": 8189,
    "ĠNic": 8190,
    "ĠNobis": 8191,
    "isso": 8192,
    "ĠHe": 8193,
    "Ġpara": 8194,
    "Ġparem": 8195,
    "Ġparata": 8196,
    "isco": 8197,
    "Ġconsoc": 8198,
    "Ġplag": 8199,
    "âĢº": 8200,
    "igit": 8201,
    "Ġlibid": 8202,
    "Ġbonos": 8203,
    "Ġstir": 8204,
    "Ġstrep": 8205,
    "Ġminores": 8206,
    "Ġminimum": 8207,
    "Ġlegato": 8208,
    "Ġaudiunt": 8209,
    "Ġcausarum": 8210,
    "iii": 8211,
    "Ġdebeant": 8212,
    "Ġvituper": 8213,
    "Ġputandum": 8214,
    "Ġistorum": 8215,
    "Ġtabularum": 8216,
    "Ġremot": 8217,
    "Ġcapta": 8218,
    "uxi": 8219,
    "Ġdivinam": 8220,
    "tores": 8221,
    "Ġdecima": 8222,
    "Ġscribas": 8223,
    "Ġsequatur": 8224,
    "Ġcarere": 8225,
    "Ġpraeteritis": 8226,
    "Ġcaelis": 8227,
    "Ġrespons": 8228,
    "inoesiae": 8229,
    "Ġsummi": 8230,
    "Ġsalvi": 8231,
    "Ġnescimus": 8232,
    "Ġquaerenda": 8233,
    "ĠGraeco": 8234,
    "Ġ61": 8235,
    "ĠIsra": 8236,
    "Ġdiligat": 8237,
    "Ġdiligunt": 8238,
    "Ġreiecta": 8239,
    "ÐµÐº": 8240,
    "Ġ99": 8241,
    "Ġmensibus": 8242,
    "Ġ150": 8243,
    "Ġpuls": 8244,
    "ĠQuisquam": 8245,
    "Ġ149": 8246,
    "Ġregnavit": 8247,
    "Ġmetrop": 8248,
    "Ġdeter": 8249,
    "Ġpossessione": 8250,
    "ĠRegione": 8251,
    "Ġauctores": 8252,
    "Ġphilosophorum": 8253,
    "Ġinstitutum": 8254,
    "Ġartes": 8255,
    "Ġexempl": 8256,
    "Ġexemplis": 8257,
    "Ġcogitationes": 8258,
    "Ġhumanis": 8259,
    "Ġhumanitatis": 8260,
    "Ġcanis": 8261,
    "Ġdictis": 8262,
    "Ġerrore": 8263,
    "Ġsexto": 8264,
    "Ġdifficillim": 8265,
    "Ð¾Ð¹": 8266,
    "ĠIllinoesiae": 8267,
    "ĠIosiae": 8268,
    "Ġmeliora": 8269,
    "Ġlibertate": 8270,
    "Ġequo": 8271,
    "ĠAsia": 8272,
    "ĠHispania": 8273,
    "Ġsono": 8274,
    "Ġcastris": 8275,
    "Ġsyn": 8276,
    "Ġturpius": 8277,
    "Ġcreaturae": 8278,
    "Ġprophetae": 8279,
    "Ġcaptus": 8280,
    "Ġsuscepit": 8281,
    "Ġadventum": 8282,
    "Ġbestiae": 8283,
    "ĠDolor": 8284,
    "Ġbeneficio": 8285,
    "Ġotium": 8286,
    "Ġquaeritis": 8287,
    "Ġinfinita": 8288,
    "Ġbreviter": 8289,
    "Ġiuvent": 8290,
    "ustrali": 8291,
    "Omnia": 8292,
    "ĠDemocr": 8293,
    "Ġpisces": 8294,
    "ĠSequanae": 8295,
    "Ġspeciei": 8296,
    "Ġauctore": 8297,
    "ĠContra": 8298,
    "ĠCiceronem": 8299,
    "Ġpassus": 8300,
    "ĠAustriae": 8301,
    "ĠAssyri": 8302,
    "ĠIuppiter": 8303,
    "Ġcalidum": 8304,
    "Entabul": 8305,
    "Ġeunuchi": 8306,
    "108836": 8307,
    ".ï¿½": 8308,
    "62": 8309,
    "==": 8310,
    "Eccles": 8311,
    "Nov": 8312,
    "OV": 8313,
    "be": 8314,
    "hac": 8315,
    "lt": 8316,
    "yth": 8317,
    "zi": 8318,
    "Ã¥": 8319,
    "ÏĨ": 8320,
    "çĶ": 8321,
    "Ġ>": 8322,
    "Ĩgypt": 8323,
    "eria": 8324,
    "Ġsinc": 8325,
    "ame": 8326,
    "Ġnis": 8327,
    "stem": 8328,
    "Ġdere": 8329,
    "emini": 8330,
    "Ġmorem": 8331,
    "Ġmenti": 8332,
    "ick": 8333,
    "urs": 8334,
    "Ġtor": 8335,
    "utiones": 8336,
    "Ġfus": 8337,
    "liothec": 8338,
    "enis": 8339,
    "Ġhist": 8340,
    "ett": 8341,
    "Ġprior": 8342,
    "Ġaduers": 8343,
    "Ġreus": 8344,
    "Ġrest": 8345,
    "Ġutraque": 8346,
    "ĠAet": 8347,
    "ĠCy": 8348,
    "ĠDiv": 8349,
    "Ġalibi": 8350,
    "Ġfaciens": 8351,
    "Ġpraepon": 8352,
    "ratio": 8353,
    "ensibus": 8354,
    "Ġposui": 8355,
    "uitu": 8356,
    "Ġsculpt": 8357,
    "aecenas": 8358,
    "ĠMur": 8359,
    "Ġ(...)": 8360,
    "Ġviderentur": 8361,
    "ĠLus": 8362,
    "eruntque": 8363,
    "ĠHae": 8364,
    "ĠHomin": 8365,
    "ĠHerm": 8366,
    "Ġprou": 8367,
    "Ġparatus": 8368,
    "Ġincor": 8369,
    "Ġincertum": 8370,
    "Ġincommod": 8371,
    "ĠTib": 8372,
    "Ġquaerunt": 8373,
    "ĠVt": 8374,
    "Ġsoles": 8375,
    "ĠBOX": 8376,
    "Ġcontul": 8377,
    "Ġfilias": 8378,
    "Ġintersit": 8379,
    "Ġrespectu": 8380,
    "rii": 8381,
    "iren": 8382,
    "Ġallig": 8383,
    "ĠUtinam": 8384,
    "Ġdup": 8385,
    "Ġdebit": 8386,
    "Ġnullae": 8387,
    "Ġvocati": 8388,
    "Ġtrip": 8389,
    "Ġremed": 8390,
    "Ġremov": 8391,
    "Ġmalus": 8392,
    "Ġamicitiis": 8393,
    "iciendis": 8394,
    "Ġrecessit": 8395,
    "Ġrecognosc": 8396,
    "Ġmollis": 8397,
    "Ġgrata": 8398,
    "Ġconfite": 8399,
    "Ġdeleta": 8400,
    "Ġ58": 8401,
    "Ġlaborem": 8402,
    "Ġprovoc": 8403,
    "Ġ77": 8404,
    "illo": 8405,
    "Ġsanctis": 8406,
    "assem": 8407,
    "Ġaccipitur": 8408,
    "Ġignomin": 8409,
    "Ġreliqui": 8410,
    "Ġ90": 8411,
    "actae": 8412,
    "Ġ159": 8413,
    "Ġsubstantiis": 8414,
    "Ġpraedicta": 8415,
    "Ġlatere": 8416,
    "ãģ§": 8417,
    "Ġtimore": 8418,
    "Ġ140": 8419,
    "Ġadiut": 8420,
    "Ġultrici": 8421,
    "Ġconsulatum": 8422,
    "Ġphilosophia": 8423,
    "ĠÃĨgypt": 8424,
    "Ġmix": 8425,
    "Ġdeput": 8426,
    "Ġrecipiunt": 8427,
    "ĠPraesent": 8428,
    "Ġmagistrum": 8429,
    "Ġiurisdict": 8430,
    "ĠScio": 8431,
    "Ġpropriis": 8432,
    "Ġaccidentia": 8433,
    "Ġlibertatis": 8434,
    "Ġdefinit": 8435,
    "Ġmarit": 8436,
    "Ġconiunctio": 8437,
    "yrr": 8438,
    "Ġreligionis": 8439,
    "Ġvidebantur": 8440,
    "Ġsocietate": 8441,
    "Ġquaesita": 8442,
    "Ġgenerale": 8443,
    "Ġjustitiam": 8444,
    "ĠAngliae": 8445,
    "Ġvendidit": 8446,
    "Ġrelictum": 8447,
    "Ġiucundius": 8448,
    "ĠSimiliter": 8449,
    "icesimo": 8450,
    "Ġceciderunt": 8451,
    "Ġturba": 8452,
    "Ġventura": 8453,
    "Ġtristitiam": 8454,
    "Ġauctorem": 8455,
    "Ġdifficultate": 8456,
    "hopify": 8457,
    "Primum": 8458,
    "ĠCampania": 8459,
    "Ġbrach": 8460,
    "Ġmeridiem": 8461,
    "Ġsagitt": 8462,
    "ĠPyrenaeorum": 8463,
    "ĠAtlanticorum": 8464,
    "éĭ¼": 8465,
    "Ġultricies": 8466,
    "Acc": 8467,
    "Iron": 8468,
    "Mat": 8469,
    "Sim": 8470,
    "iur": 8471,
    "public": 8472,
    "´ì": 8473,
    "Î¬": 8474,
    "ÑĦ": 8475,
    "atenus": 8476,
    "Ġcerv": 8477,
    "Ġmig": 8478,
    "ictum": 8479,
    "Ġvillam": 8480,
    "Ġvires": 8481,
    "uter": 8482,
    "Ġful": 8483,
    "esi": 8484,
    "Ġherb": 8485,
    "etiam": 8486,
    "arias": 8487,
    "idio": 8488,
    "ibilem": 8489,
    "Ġadnunt": 8490,
    "ede": 8491,
    "Ġren": 8492,
    "Ġles": 8493,
    "Ġluna": 8494,
    "abitis": 8495,
    "Ġutilia": 8496,
    "eluia": 8497,
    "Ġdea": 8498,
    "Ġdeesse": 8499,
    "Ġdeorsum": 8500,
    "ĠIudic": 8501,
    "ĠSatur": 8502,
    "ĠScript": 8503,
    "ĠCred": 8504,
    "ĠCaus": 8505,
    "omne": 8506,
    "Ġdiceres": 8507,
    "Quoniam": 8508,
    "Ġ112": 8509,
    "Ġbov": 8510,
    "aturae": 8511,
    "ĠNa": 8512,
    "ĠMater": 8513,
    "Ġipsas": 8514,
    "Ġoppon": 8515,
    "Ġcadit": 8516,
    "Ġplerisque": 8517,
    "erti": 8518,
    "Ġaccedit": 8519,
    "ĠBonum": 8520,
    "Ġcommor": 8521,
    "Ġlibere": 8522,
    "incta": 8523,
    "Ġdixerimus": 8524,
    "rique": 8525,
    "Ġnostras": 8526,
    "abulum": 8527,
    "Ġlocorum": 8528,
    "ĠOri": 8529,
    "Ġaltare": 8530,
    "Ġsubic": 8531,
    "Ġsublim": 8532,
    "Ġdomic": 8533,
    "Ġcommunes": 8534,
    "Ġdeberet": 8535,
    "Ġputatur": 8536,
    "Ġurbana": 8537,
    "Ġcapita": 8538,
    "Ġapprob": 8539,
    "itudini": 8540,
    "Ġdeced": 8541,
    "Ġactis": 8542,
    "Ġinvas": 8543,
    "Ġlitteram": 8544,
    "Ġcredidit": 8545,
    "Ġcrediderunt": 8546,
    "Ġpraeterquam": 8547,
    "Ġ2017": 8548,
    "Ġ2018": 8549,
    "Ġoptima": 8550,
    "Ġprobari": 8551,
    "Ġprincipiis": 8552,
    "Ġ66": 8553,
    "Ġdiligentiam": 8554,
    "ĠChrys": 8555,
    "Ġ85": 8556,
    "Ġsapientis": 8557,
    "Ġmutari": 8558,
    "Ġhonoribus": 8559,
    "Ġaedibus": 8560,
    "Ð¸ÑĤ": 8561,
    "posuit": 8562,
    "ĠExc": 8563,
    "Ġeman": 8564,
    "Ġmillesimo": 8565,
    "Ġaperta": 8566,
    "ĠXI": 8567,
    "Ġliberorum": 8568,
    "Ġaequalis": 8569,
    "Ġaedificia": 8570,
    "Ġaedificavit": 8571,
    "Ġadiuncta": 8572,
    "cripta": 8573,
    "Ġpraecipio": 8574,
    "Ġefficiunt": 8575,
    "Ġtraditum": 8576,
    "Ġconsulem": 8577,
    "Ġsciret": 8578,
    "Ġphilosophis": 8579,
    "Ġaeternitas": 8580,
    "Ġspirit": 8581,
    "Ġrefertur": 8582,
    "Ġcalum": 8583,
    "Ġhumanitate": 8584,
    "Ġdiluv": 8585,
    "Ġhostem": 8586,
    "Ġreperiuntur": 8587,
    "Ġproximi": 8588,
    "Ġlibertas": 8589,
    "Ġ1947": 8590,
    "Ġhabitare": 8591,
    "Ġsententias": 8592,
    "ĠHierem": 8593,
    "Ġhereditatem": 8594,
    "Ġfabulae": 8595,
    "Ġtutel": 8596,
    "Ġlaoreet": 8597,
    "Ġtemere": 8598,
    "Ġargumenta": 8599,
    "Ġcaptiv": 8600,
    "Ġcondicio": 8601,
    "Ġpraesidium": 8602,
    "ĠCorp": 8603,
    "Ġfrequent": 8604,
    "Ġpertineat": 8605,
    "Ġascendit": 8606,
    "oks": 8607,
    "ĠSalom": 8608,
    "Ġconcessa": 8609,
    "Ġoblitus": 8610,
    "Ġvocabula": 8611,
    "itteret": 8612,
    "Ġcotidi": 8613,
    "Ġpaenitentiam": 8614,
    "Francogallice": 8615,
    "encia": 8616,
    "ĠSaxoniae": 8617,
    "Ġilluminat": 8618,
    "ĠMoyses": 8619,
    "ĠMolestiae": 8620,
    "Ġnormam": 8621,
    "Ġsacrific": 8622,
    "Ġadolesc": 8623,
    "\";": 8624,
    "';": 8625,
    "1000": 8626,
    "Ac": 8627,
    "DP": 8628,
    "HX": 8629,
    "Idem": 8630,
    "Sit": 8631,
    "XII": 8632,
    "bis": 8633,
    "div": 8634,
    "eamus": 8635,
    "efac": 8636,
    "mag": 8637,
    "riae": 8638,
    "sh": 8639,
    "vo": 8640,
    "vimus": 8641,
    "ww": 8642,
    "Ã¹": 8643,
    "ÄĻ": 8644,
    "Ùĩ": 8645,
    "ĠÑĤ": 8646,
    "Ġequis": 8647,
    "itet": 8648,
    "Ġpus": 8649,
    "Ġpanis": 8650,
    "atque": 8651,
    "onias": 8652,
    "Ġnox": 8653,
    "Ġnau": 8654,
    "stor": 8655,
    "Ġinsequ": 8656,
    "Ġteg": 8657,
    "Ġianu": 8658,
    "rex": 8659,
    "Ġfov": 8660,
    "Ġfate": 8661,
    "oma": 8662,
    "imas": 8663,
    "Ġhil": 8664,
    "uld": 8665,
    "ulare": 8666,
    "Ġprist": 8667,
    "Ġprav": 8668,
    "udum": 8669,
    "elunc": 8670,
    "ott": 8671,
    "Ġdestit": 8672,
    "agog": 8673,
    "ĠCas": 8674,
    "ĠCain": 8675,
    "ĠDrus": 8676,
    "estatis": 8677,
    "Ġaliunde": 8678,
    "Ġalioquin": 8679,
    "Qua": 8680,
    "Ġ115": 8681,
    "ĠPu": 8682,
    "ĠPac": 8683,
    "ĠPoss": 8684,
    "Ġposuerunt": 8685,
    "Ġsciunt": 8686,
    "inavit": 8687,
    "Ġuest": 8688,
    "ĠLitter": 8689,
    "ĠHistor": 8690,
    "Ġamari": 8691,
    "ĠRob": 8692,
    "ĠRect": 8693,
    "Ġinclin": 8694,
    "Ġsoleo": 8695,
    ".....": 8696,
    "Ġaccum": 8697,
    "Ġresc": 8698,
    "Ġregina": 8699,
    "Ġfecerim": 8700,
    "Ġvirgo": 8701,
    "Ġ1919": 8702,
    "ĠOI": 8703,
    "ĠOl": 8704,
    "Ġspelunc": 8705,
    "Ġmultitudine": 8706,
    "Ġaudisset": 8707,
    "Ġobv": 8708,
    "Ġmagnitudinis": 8709,
    "Ġcuiuslibet": 8710,
    "Ġnaturaliter": 8711,
    "Ġdebitum": 8712,
    "Ġagas": 8713,
    "Ġvocum": 8714,
    "Ġvocas": 8715,
    "Ġpecora": 8716,
    "Ġcursum": 8717,
    "Ġdivitiarum": 8718,
    "ogle": 8719,
    "Ġdecret": 8720,
    "Ġdeclina": 8721,
    "Ġservis": 8722,
    "Ġelabor": 8723,
    "Ġnotitiam": 8724,
    "Ġ55": 8725,
    "Ġcredibile": 8726,
    "Ġdefendere": 8727,
    "Ġoptimi": 8728,
    "Ġpraefectura": 8729,
    "Ġmolestus": 8730,
    "Ġprobata": 8731,
    "Ġinveniri": 8732,
    "Ġredire": 8733,
    "Ġvestro": 8734,
    "Ġ76": 8735,
    "ĠArc": 8736,
    "ĠGraecus": 8737,
    "Ġtestes": 8738,
    "Ġcognosci": 8739,
    "Ġappellavit": 8740,
    "Ġundev": 8741,
    "Ġconiur": 8742,
    "Ġ94": 8743,
    "Ġstatua": 8744,
    "Ġpraedicatum": 8745,
    "ĠBrute": 8746,
    "ĠXII": 8747,
    "Ġmoveatur": 8748,
    "Ġ169": 8749,
    "Ġ109": 8750,
    "Ġveterum": 8751,
    "Ġhabeatis": 8752,
    "Ġinstituta": 8753,
    "Ġnoluit": 8754,
    "Ġpersonarum": 8755,
    "Ġbibit": 8756,
    "Ġclara": 8757,
    "Ġangeli": 8758,
    "Ġsexaginta": 8759,
    "Ġcopias": 8760,
    "Ð¾Ð´": 8761,
    "Ġ</": 8762,
    "ronae": 8763,
    "Ġhabitant": 8764,
    "rens": 8765,
    "Ġinterrogavit": 8766,
    "Ġvehicula": 8767,
    "Ġdamnum": 8768,
    "Ġfabulam": 8769,
    "urrit": 8770,
    "Ġpervenire": 8771,
    "Ġtuto": 8772,
    "Ġscholae": 8773,
    "lack": 8774,
    "Ġarcam": 8775,
    "Ġperpetuo": 8776,
    "ĠNullam": 8777,
    "Ġpostulat": 8778,
    "Ġitemque": 8779,
    "ÐµÐ¼": 8780,
    "Ġcantus": 8781,
    "ĠCalv": 8782,
    "Ġapostolici": 8783,
    "ĠAfrica": 8784,
    "Ġsomno": 8785,
    "Ġindignum": 8786,
    "Ġdecretum": 8787,
    "Ġpeculio": 8788,
    "Ã«l": 8789,
    "Ġdividitur": 8790,
    "ĠLingua": 8791,
    "Ġoctavo": 8792,
    "Ġirritum": 8793,
    "Ġpignus": 8794,
    "Ġmercedem": 8795,
    "ĠArduen": 8796,
    "cuiusque": 8797,
    "ĠIovis": 8798,
    "Ġconsulibus": 8799,
    "Ġrelatiue": 8800,
    "ĠBerolini": 8801,
    "ĠIsraÃ«l": 8802,
    ".;": 8803,
    "Ki": 8804,
    "Sp": 8805,
    "Variant": 8806,
    "cre": 8807,
    "cid": 8808,
    "ey": 8809,
    "hic": 8810,
    "ieri": 8811,
    "ienda": 8812,
    "lent": 8813,
    "piam": 8814,
    "pectus": 8815,
    "Ã»": 8816,
    "ç´": 8817,
    "Ġè": 8818,
    "umenta": 8819,
    "erio": 8820,
    "erra": 8821,
    "Ġaem": 8822,
    "Ġaustrali": 8823,
    "aeum": 8824,
    "Ġdarem": 8825,
    "emper": 8826,
    "Ġmur": 8827,
    "Ġmasc": 8828,
    "Ġmach": 8829,
    "uria": 8830,
    "Ġvali": 8831,
    "Ġvaria": 8832,
    "Ġvariant": 8833,
    "Ġtun": 8834,
    "Ġiri": 8835,
    "Ġfertur": 8836,
    "Ġfront": 8837,
    "Ġhe": 8838,
    "arat": 8839,
    "Ġaditus": 8840,
    "edo": 8841,
    "Ġliter": 8842,
    "Ġlunae": 8843,
    "Ġexor": 8844,
    "Ġexire": 8845,
    "ĠEd": 8846,
    "ĠAx": 8847,
    "ĠIdeo": 8848,
    "ĠSov": 8849,
    "agor": 8850,
    "ĠDa": 8851,
    "Ġdicantur": 8852,
    "Ġdicerent": 8853,
    "Quare": 8854,
    "Ġfacerent": 8855,
    "Ġpraestit": 8856,
    "ĠPtol": 8857,
    "peret": 8858,
    "Ġgymn": 8859,
    "Ġcoeperit": 8860,
    "Ġhabenda": 8861,
    "Ġtuarum": 8862,
    "ĠNeg": 8863,
    "Ġsciendum": 8864,
    "ucta": 8865,
    "Ġpotu": 8866,
    "issi": 8867,
    "Ġabduc": 8868,
    "Ġabstin": 8869,
    "Ġrum": 8870,
    "Ġrursum": 8871,
    "Ġidest": 8872,
    "Ġnequam": 8873,
    "ĠRei": 8874,
    "ĠTol": 8875,
    "Ġnihilum": 8876,
    "Ġsolam": 8877,
    "ĠGer": 8878,
    "ĠBar": 8879,
    "igi": 8880,
    "ientur": 8881,
    "Ġlegat": 8882,
    "Ġlegionibus": 8883,
    "Ġspatio": 8884,
    "Ġincolunt": 8885,
    "Ġpostulo": 8886,
    "Ġobnox": 8887,
    "Ġimpud": 8888,
    "ades": 8889,
    "Ġgenerum": 8890,
    "Ġagis": 8891,
    "Ġacies": 8892,
    "Ġnuncup": 8893,
    "pexit": 8894,
    "Ġcapiat": 8895,
    "ernum": 8896,
    "Ġcivitatum": 8897,
    "Ġdecet": 8898,
    "Ġasinum": 8899,
    "Ġcomprob": 8900,
    "Ġservire": 8901,
    "Ġconcub": 8902,
    "Ġrecept": 8903,
    "Ġvivific": 8904,
    "Ġsequens": 8905,
    "Ġcaritatem": 8906,
    "Ġcardin": 8907,
    "Ġinscript": 8908,
    "Ġtenuit": 8909,
    "Ġcredentes": 8910,
    "Ġoppress": 8911,
    "Ġexclud": 8912,
    "ance": 8913,
    "Ġprobatum": 8914,
    "Ġprobationem": 8915,
    "Ð°ÑĢ": 8916,
    "Ġ78": 8917,
    "rehensum": 8918,
    "Ġ65": 8919,
    "Ġegredi": 8920,
    "Ġtranqu": 8921,
    "Ġnecessitatem": 8922,
    "Ġmediae": 8923,
    "Ġpatron": 8924,
    "ĠExemp": 8925,
    "Ġaccusare": 8926,
    "ifex": 8927,
    "Ġtransg": 8928,
    "Ġostendam": 8929,
    "Ġtimor": 8930,
    "ideas": 8931,
    "Ġaedificata": 8932,
    "Ġadiun": 8933,
    "Ġepiscopum": 8934,
    "Ã©n": 8935,
    "Ġdetest": 8936,
    "Ġpraecipua": 8937,
    "Ġvetus": 8938,
    "Ġdumtax": 8939,
    "Ġartibus": 8940,
    "Ġfinita": 8941,
    "Ġbreve": 8942,
    "Ġdiuers": 8943,
    "Ġindicat": 8944,
    "ĠIudaeis": 8945,
    "Ġmittam": 8946,
    "ĠAliquid": 8947,
    "Ġpraedia": 8948,
    "Ġoffens": 8949,
    "ĠAugustinus": 8950,
    "Ġcompositum": 8951,
    "Ġreligionem": 8952,
    "Ġarcu": 8953,
    "Î¿Î½": 8954,
    "Ġcrimine": 8955,
    "ocraticae": 8956,
    "ĠDolab": 8957,
    "Ġbenedixit": 8958,
    "Ġdubitamus": 8959,
    "Ġtollitur": 8960,
    "Ġindigentia": 8961,
    "Ġperspicuum": 8962,
    "ĠColosse": 8963,
    "Ġurbi": 8964,
    "Ġretinere": 8965,
    "Ġpaenitet": 8966,
    "ĠMulti": 8967,
    "Ġabundantia": 8968,
    "Ġcatholica": 8969,
    "Ġfabric": 8970,
    "Ġpoetae": 8971,
    "Ġuerba": 8972,
    "Ġmagistratibus": 8973,
    "Ġpercussit": 8974,
    "Ġbenevolentiae": 8975,
    "ĠAemilia": 8976,
    "Ġoriginem": 8977,
    "ĠPharao": 8978,
    "Ġsigno": 8979,
    "ĠCalifor": 8980,
    "Ġtortor": 8981,
    "Ġincorrupt": 8982,
    "Ġdumtaxat": 8983,
    "72": 8984,
    "?Â»": 8985,
    "AP": 8986,
    "Cons": 8987,
    "ES": 8988,
    "La": 8989,
    "Reg": 8990,
    "Sum": 8991,
    "Tu": 8992,
    "eae": 8993,
    "ietur": 8994,
    "rari": 8995,
    "veg": 8996,
    "ysi": 8997,
    "{\"": 8998,
    "Ã¬": 8999,
    "Äĥ": 9000,
    "Î³": 9001,
    "Î´": 9002,
    "ĠÑĢ": 9003,
    "Ġpel": 9004,
    "Ġpub": 9005,
    "Ġpress": 9006,
    "ativa": 9007,
    "Ġcarum": 9008,
    "Ġcith": 9009,
    "Ġdot": 9010,
    "org": 9011,
    "Ġvt": 9012,
    "Ġtib": 9013,
    "Ġtal": 9014,
    "Ġtag": 9015,
    "Ġhujus": 9016,
    "odus": 9017,
    "ids": 9018,
    "osi": 9019,
    "Ġnono": 9020,
    "Ġadl": 9021,
    "Ġadest": 9022,
    "elus": 9023,
    "Ġdestin": 9024,
    "Ġconatus": 9025,
    "ĠSine": 9026,
    "ages": 9027,
    "Ġ117": 9028,
    "Ġbut": 9029,
    "istit": 9030,
    "ĠPod": 9031,
    "ivoc": 9032,
    "ucius": 9033,
    "uctum": 9034,
    "Ġseipsum": 9035,
    "Ġerimus": 9036,
    "ĠLoc": 9037,
    "Ġparlam": 9038,
    "Ġincho": 9039,
    "ĠVoc": 9040,
    "Ġtemplo": 9041,
    "Ġmodest": 9042,
    "igh": 9043,
    "ineant": 9044,
    "Ġinterfectus": 9045,
    "Ġpatrum": 9046,
    "Ġpatef": 9047,
    "Ġanimos": 9048,
    "Ġveneris": 9049,
    "Ġvenientem": 9050,
    "issimas": 9051,
    "Ġloquens": 9052,
    "Ġ1920": 9053,
    "Ġ1933": 9054,
    "Ġoculo": 9055,
    "Ġmultus": 9056,
    "Ġpostremo": 9057,
    "Ġscripto": 9058,
    "Ġdui": 9059,
    "Ġagg": 9060,
    "Ġagenda": 9061,
    "ĠAnsel": 9062,
    "Ġacerb": 9063,
    "Ġtabulam": 9064,
    "Ġmalitiam": 9065,
    "Ġecclesias": 9066,
    "Ġrepper": 9067,
    "Ġassign": 9068,
    "Ġpuerit": 9069,
    "Ġcognitum": 9070,
    "ĠFrancicae": 9071,
    "Ġconcept": 9072,
    "Ġrecuper": 9073,
    "Ġgratul": 9074,
    "ĠRomaniae": 9075,
    "Ġcorpori": 9076,
    "Ġconfec": 9077,
    "rema": 9078,
    "ĠQuodsi": 9079,
    "ĠChar": 9080,
    "iosae": 9081,
    "Ġvivi": 9082,
    "Ġvivat": 9083,
    "Ġnotandum": 9084,
    "Ġclari": 9085,
    "Ġteneri": 9086,
    "Ġplacitum": 9087,
    "Ġpersuad": 9088,
    "Ġlaboris": 9089,
    "Ġdefl": 9090,
    "Ġmorta": 9091,
    "Ġnovo": 9092,
    "Ġnovus": 9093,
    "Ġvaleas": 9094,
    "Ġinvenimus": 9095,
    "Ġinveniat": 9096,
    "Ġfrug": 9097,
    "ĠArmen": 9098,
    "Ġnesci": 9099,
    "Ġducem": 9100,
    "Ġiuss": 9101,
    "Ġplurimis": 9102,
    "Ġcogito": 9103,
    "Ġreliquos": 9104,
    "ĠAdhuc": 9105,
    "ĠUtrum": 9106,
    "Ġaquis": 9107,
    "Ġaperte": 9108,
    "Ġpeccatorum": 9109,
    "Ġcontrist": 9110,
    "ãģ«": 9111,
    "Ġsignificare": 9112,
    "Ġponam": 9113,
    "Ġaequales": 9114,
    "Ġdiffin": 9115,
    "Ġdiffert": 9116,
    "Ġevac": 9117,
    "ardus": 9118,
    "Ġinstitutus": 9119,
    "Ġinstitutis": 9120,
    "ĠEstne": 9121,
    "ĠAnte": 9122,
    "Ġcogitatur": 9123,
    "Ġprompt": 9124,
    "Ġpromotus": 9125,
    "Ġerrorem": 9126,
    "Ġseptimo": 9127,
    "Ġrecipit": 9128,
    "Ġreperire": 9129,
    "ĠPetro": 9130,
    "Ġuideri": 9131,
    "Ġdisputare": 9132,
    "atuor": 9133,
    "Ġludum": 9134,
    "Ġambulare": 9135,
    "Ġmerces": 9136,
    "Ġignorat": 9137,
    "Ġversantur": 9138,
    "Ġfabula": 9139,
    "Ġfabulas": 9140,
    "Ġmeruit": 9141,
    "Ġfestum": 9142,
    "ĠEnim": 9143,
    "Ġsufficere": 9144,
    "Ġflumine": 9145,
    "Ġfluminis": 9146,
    "Ġuniuscuiusque": 9147,
    "ĠEuropa": 9148,
    "ĠPersarum": 9149,
    "Ġdecreta": 9150,
    "Ġtitulum": 9151,
    "Ġgubernator": 9152,
    "Marcus": 9153,
    "aphat": 9154,
    "aphys": 9155,
    "ĠIncolae": 9156,
    "ĠĠĠĠĠĠĠĠĠĠĠĠĠĠĠĠĠĠĠĠĠĠĠĠĠĠĠĠĠĠĠĠĠĠĠĠĠĠĠĠĠĠĠĠĠĠĠĠĠĠĠĠĠĠĠĠĠĠĠĠĠĠĠĠ": 9157,
    "ĠSemper": 9158,
    "Ġdextera": 9159,
    "Ġoeconomiae": 9160,
    "ĠLatinos": 9161,
    "Ġomittam": 9162,
    "\"\\\"\\\"\\\"\\\"\\\"\\\"\\\"\\\"\\\"\\\"\\\"\\\"\\\"\\\"\\\"\\\"\\\"\\\"\\\"\\\"\\\"\\\"\\\"\\\"\\\"\\\"\\\"\\\"\\\"\\\"\\\"\\\"\\\"\\\"\\\"\\\"\\\"\\\"\\\"\\\"\\\"\\\"\\\"\\\"\\\"\\\"\\\"\\\"\\\"\\\"\\\"\\\"\\\"\\\"\\\"\\\"\\\"\\\"\\\"\\\"\\\"\\\"\\\"\\": 9163,
    "Ġdilexit": 9164,
    "ĠBeatus": 9165,
    "Ġdefunctus": 9166,
    "ĠCirca": 9167,
    "Dixitque": 9168,
    "ĠSociet": 9169,
    "ĠJoseph": 9170,
    "Apud": 9171,
    "compare": 9172,
    "Ġmassa": 9173,
    "cemodi": 9174,
    "ĠSoviet": 9175,
    "74": 9176,
    "76": 9177,
    "?âĢĿ": 9178,
    "CL": 9179,
    "Eodem": 9180,
    "IO": 9181,
    "IS": 9182,
    "Mult": 9183,
    "Ne": 9184,
    "Om": 9185,
    "cor": 9186,
    "iol": 9187,
    "mer": 9188,
    "nihil": 9189,
    "pg": 9190,
    "ricae": 9191,
    "set": 9192,
    "tamen": 9193,
    "ual": 9194,
    "vide": 9195,
    "ÅĻ": 9196,
    "áĥ": 9197,
    "ĠØ": 9198,
    "ĠÃ©": 9199,
    "Ġeuen": 9200,
    "erentia": 9201,
    "Ġaf": 9202,
    "Ġast": 9203,
    "itania": 9204,
    "usce": 9205,
    "Ġpur": 9206,
    "Ġnatu": 9207,
    "Ġdaret": 9208,
    "Ġtan": 9209,
    "Ġtattoos": 9210,
    "ree": 9211,
    "rexit": 9212,
    "Ġfatum": 9213,
    "Ġfiet": 9214,
    "Ġfoll": 9215,
    "etae": 9216,
    "any": 9217,
    "ecimo": 9218,
    "Ġrenov": 9219,
    "Ġreiciendis": 9220,
    "Ġliturg": 9221,
    "Ġutatur": 9222,
    "Ġutrique": 9223,
    "ĠEam": 9224,
    "ĠEorum": 9225,
    "ĠSull": 9226,
    "ĠSara": 9227,
    "ĠCla": 9228,
    "ĠDico": 9229,
    "esti": 9230,
    "ĠPlin": 9231,
    "ĠPenn": 9232,
    "Ġgentem": 9233,
    "Ġhabitura": 9234,
    "ĠMath": 9235,
    "Ġsei": 9236,
    "ĠHanc": 9237,
    "ĠHÃ¦c": 9238,
    "Ġnequ": 9239,
    "Ġinclus": 9240,
    "Ġaliquet": 9241,
    "ĠTit": 9242,
    "ĠTest": 9243,
    "ĠVnde": 9244,
    "Ġmay": 9245,
    "Ġmauris": 9246,
    "Ġsolitum": 9247,
    "Ġsumitur": 9248,
    "erationem": 9249,
    "Ġbonitatem": 9250,
    "roque": 9251,
    "Ġlegunt": 9252,
    "Ġvenias": 9253,
    "Ġlocup": 9254,
    "Ġloquendo": 9255,
    "Ġspatium": 9256,
    "ĠIndic": 9257,
    "Ġalleg": 9258,
    "Ġusurp": 9259,
    "Ġsubter": 9260,
    "Ġaudeo": 9261,
    "Ġobj": 9262,
    "Ġobsequ": 9263,
    "Ġscriptus": 9264,
    "Ġnullis": 9265,
    "Ġvitiis": 9266,
    "Ġcurare": 9267,
    "Ġsuperiorem": 9268,
    "Ġsuperioribus": 9269,
    "uique": 9270,
    "Ġcivitati": 9271,
    "ĠĠĠĠĠ": 9272,
    "Ġdecip": 9273,
    "Ġdeceat": 9274,
    "Ġdedisse": 9275,
    "Ġmortua": 9276,
    "Ġdeser": 9277,
    "ĠFranciscus": 9278,
    "Ġsentiunt": 9279,
    "Ġconcilium": 9280,
    "Ġrecens": 9281,
    "Ġrecepit": 9282,
    "Ġscribitur": 9283,
    "Ġscribendum": 9284,
    "Ġinventus": 9285,
    "ioso": 9286,
    "Ġiusti": 9287,
    "Ġviventem": 9288,
    "iensi": 9289,
    "Ġfiebat": 9290,
    "Ġmolestie": 9291,
    "Ġcertiorem": 9292,
    "Ġvester": 9293,
    "Ġ73": 9294,
    "Ġquaerendum": 9295,
    "ĠGraeciam": 9296,
    "Ġ62": 9297,
    "Ġaetatibus": 9298,
    "Ġhonores": 9299,
    "Ġtabell": 9300,
    "ĠMartin": 9301,
    "Ġaedes": 9302,
    "Ġemere": 9303,
    "Ġfactio": 9304,
    "ĠXVI": 9305,
    "Ġdubitatio": 9306,
    "ĠAlt": 9307,
    "Ġoppidi": 9308,
    "Ġdetrah": 9309,
    "Ġpacis": 9310,
    "Ġdissent": 9311,
    "Ġalicubi": 9312,
    "Ġnegoti": 9313,
    "Ġlectores": 9314,
    "Ġexistimes": 9315,
    "Ġonline": 9316,
    "ĠIudaeorum": 9317,
    "Ð°Ðº": 9318,
    "Ġpraedest": 9319,
    "Ġdefinitionem": 9320,
    "Ġdefinitione": 9321,
    "Ġaccepisti": 9322,
    "Ġ1991": 9323,
    "Ġpedem": 9324,
    "Ġutilitas": 9325,
    "Ġfoeder": 9326,
    "ÐºÐ°": 9327,
    "ÐºÐ¸": 9328,
    "Ġ1974": 9329,
    "Ġretro": 9330,
    "quaeque": 9331,
    "Ġdiap": 9332,
    "ĠAgrip": 9333,
    "ÐµÐ¹": 9334,
    "Ġprosper": 9335,
    "ĠPompeio": 9336,
    "ĠSalv": 9337,
    "Ġfacultas": 9338,
    "ĠMinore": 9339,
    "Ġoperatio": 9340,
    "ippus": 9341,
    "Ġmontem": 9342,
    "Ġdeliciis": 9343,
    "arnationis": 9344,
    "Ã³n": 9345,
    "Ġitinera": 9346,
    "ĠTerra": 9347,
    "Ġcongregati": 9348,
    "Ġpraeclara": 9349,
    "insula": 9350,
    "Ġanimadverti": 9351,
    "Ġadoptionem": 9352,
    "ĠQuotquot": 9353,
    "Ġausus": 9354,
    "ĠJuda": 9355,
    "Ġmaturitatem": 9356,
    "Ġpeius": 9357,
    "Ġscandaliz": 9358,
    "ailable": 9359,
    "Ġpraediorum": 9360,
    "ĠCantu": 9361,
    "Ġrediit": 9362,
    "ĠLondinii": 9363,
    "Ġsabb": 9364,
    "silv": 9365,
    "Ġstrepitum": 9366,
    "OVE": 9367,
    "//": 9368,
    "Es": 9369,
    "Ip": 9370,
    "Pi": 9371,
    "Prop": 9372,
    "XI": 9373,
    "eis": 9374,
    "ger": 9375,
    "gen": 9376,
    "liter": 9377,
    "nas": 9378,
    "port": 9379,
    "ws": 9380,
    "}}": 9381,
    "Ïī": 9382,
    "ÙĨ": 9383,
    "ÛĮ": 9384,
    "ä¹": 9385,
    "å¤": 9386,
    "åį": 9387,
    "ĠÑĥ": 9388,
    "itionibus": 9389,
    "usae": 9390,
    "inet": 9391,
    "inar": 9392,
    "initatis": 9393,
    "isa": 9394,
    "atiae": 9395,
    "Ġnor": 9396,
    "Ġmac": 9397,
    "Ġinha": 9398,
    "iciae": 9399,
    "Ġtz": 9400,
    "Ġiumentis": 9401,
    "Ġfen": 9402,
    "Ġfast": 9403,
    "enna": 9404,
    "omb": 9405,
    "anensi": 9406,
    "ules": 9407,
    "Ġpra": 9408,
    "ols": 9409,
    "uni": 9410,
    "ederunt": 9411,
    "iamur": 9412,
    "ionali": 9413,
    "Ġquaesi": 9414,
    "Ġsuave": 9415,
    "alitate": 9416,
    "ĠAll": 9417,
    "ĠIb": 9418,
    "ĠIon": 9419,
    "ĠCot": 9420,
    "ĠCong": 9421,
    "Ġmeque": 9422,
    "Ġdicentem": 9423,
    "Ġdicebatur": 9424,
    "Ġperuen": 9425,
    "Ġfacili": 9426,
    "Ġpraedit": 9427,
    "rationem": 9428,
    "ĠPag": 9429,
    "Ġsedere": 9430,
    "Ġsedens": 9431,
    "Ġgent": 9432,
    "Ġhabebam": 9433,
    "Ġscitur": 9434,
    "Ġpotent": 9435,
    "Ġpotuisset": 9436,
    "Ġapostoli": 9437,
    "Ġsever": 9438,
    "andas": 9439,
    "Ġviderat": 9440,
    "Ġrip": 9441,
    "Ġoptin": 9442,
    "Ġerrare": 9443,
    "ĠHam": 9444,
    "Ġcaerim": 9445,
    "ĠRosc": 9446,
    "ĠFin": 9447,
    "Ġvolum": 9448,
    "Ġvolueris": 9449,
    "ĠTrans": 9450,
    "Ġconsuli": 9451,
    "Ġimo": 9452,
    "Ġnihilominus": 9453,
    "essitatibus": 9454,
    "ĠGali": 9455,
    "ĠBulg": 9456,
    "iginti": 9457,
    "Ġfueris": 9458,
    "Ġfuissent": 9459,
    "Ġorci": 9460,
    "Ġpatrim": 9461,
    "Ġregia": 9462,
    "Ġregioni": 9463,
    "Ġminore": 9464,
    "Ġspectare": 9465,
    "eatrum": 9466,
    "Ġvoluptatis": 9467,
    "Ġnosc": 9468,
    "Ġduplex": 9469,
    "Ġagatur": 9470,
    "Ġpraesidem": 9471,
    "Ġputabat": 9472,
    "Ġcursu": 9473,
    "Ġamica": 9474,
    "Ġmaximae": 9475,
    "Ġsuade": 9476,
    "Ġconcepit": 9477,
    "Ġfortuit": 9478,
    "ietis": 9479,
    "Ġiuste": 9480,
    "Ġelecta": 9481,
    "Ġpossitis": 9482,
    "ĠAmor": 9483,
    "Ġcredidi": 9484,
    "Ġeritis": 9485,
    "Ġexclus": 9486,
    "Ġvalent": 9487,
    "Ġnegant": 9488,
    "Ġprobandum": 9489,
    "Ġinvenies": 9490,
    "Ġprincipem": 9491,
    "Ġvestrae": 9492,
    "Ġ71": 9493,
    "Ġjus": 9494,
    "Ġducit": 9495,
    "Ġundique": 9496,
    "Ġnecessitatis": 9497,
    "Ġgradum": 9498,
    "Ġabsente": 9499,
    "Ġintellegatur": 9500,
    "Ġ82": 9501,
    "Ġvicit": 9502,
    "Ġsapientes": 9503,
    "ĠJoh": 9504,
    "Ġhumano": 9505,
    "Ð¸Ñı": 9506,
    "Ġlaudatur": 9507,
    "Ġdiscipl": 9508,
    "Ġdiscipulorum": 9509,
    "ĠExp": 9510,
    "Ġtantam": 9511,
    "Ġoportebat": 9512,
    "Ġmilitiae": 9513,
    "Ġfactam": 9514,
    "Ġsacr": 9515,
    "ĠBrutum": 9516,
    "ĠpoÃ«": 9517,
    "Ġadminister": 9518,
    "Ġimmedi": 9519,
    "ĠXV": 9520,
    "Ġoperari": 9521,
    "Ġostensum": 9522,
    "Ġsermonibus": 9523,
    "ĠIoann": 9524,
    "Ġultrices": 9525,
    "Ġnocere": 9526,
    "Ġdeterr": 9527,
    "Ġflam": 9528,
    "Ġpraecipuum": 9529,
    "Ġaddere": 9530,
    "Ġtribuit": 9531,
    "ĠWest": 9532,
    "Ġevan": 9533,
    "Ġedere": 9534,
    "Ġliceret": 9535,
    "Ġfinit": 9536,
    "Ġprofecti": 9537,
    "Ġlaetus": 9538,
    "Ġdifficilius": 9539,
    "ĠPostum": 9540,
    "robrium": 9541,
    "Ġsperare": 9542,
    "ĠPetri": 9543,
    "Ġequitum": 9544,
    "Ġnuntios": 9545,
    "Ġnavis": 9546,
    "Ġpuellam": 9547,
    "ĠHieros": 9548,
    "Ġadscrib": 9549,
    "Ġdivisit": 9550,
    "ĠPaulum": 9551,
    "ĠIlli": 9552,
    "Ġreferri": 9553,
    "ĠPars": 9554,
    "ennio": 9555,
    "ennium": 9556,
    "Ġargumento": 9557,
    "Ġadvoc": 9558,
    "Ġecclesiastica": 9559,
    "Ġangelo": 9560,
    "Ġsacerdos": 9561,
    "Ġpoenae": 9562,
    "ĠPompeium": 9563,
    "Ġsepulc": 9564,
    "Ġpossibili": 9565,
    "Ġproficiscitur": 9566,
    "Ġproportion": 9567,
    "Ġinterficere": 9568,
    "Ð¸Ð¹": 9569,
    "Ġaegr": 9570,
    "ĠAccius": 9571,
    "Ġconscientia": 9572,
    "Omnis": 9573,
    "Ġgladio": 9574,
    "Ġiuvenis": 9575,
    "Ġiuvenes": 9576,
    "ĠRussiae": 9577,
    "ĠDemocraticae": 9578,
    "Ġelementum": 9579,
    "Ġbaptis": 9580,
    "ĠAlexander": 9581,
    "ĠItalicus": 9582,
    "Ġreversi": 9583,
    "Ġsenectute": 9584,
    "Ġvariet": 9585,
    "Ġintellexi": 9586,
    "ĠTuscul": 9587,
    "ĠBorussiae": 9588,
    "ĠNescio": 9589,
    "Ġ$(": 9590,
    "ĠPublicae": 9591,
    "products": 9592,
    "ĠMichiganiae": 9593,
    "ĠGoogle": 9594,
    "ĠFrider": 9595,
    "ĠAssyriorum": 9596,
    "Ġaccumsan": 9597,
    "!\"": 9598,
    "83": 9599,
    "85": 9600,
    "Domine": 9601,
    "En": 9602,
    "Fac": 9603,
    "Shop": 9604,
    "Unde": 9605,
    "dio": 9606,
    "decim": 9607,
    "fr": 9608,
    "fin": 9609,
    "files": 9610,
    "ka": 9611,
    "lit": 9612,
    "pend": 9613,
    "pote": 9614,
    "tione": 9615,
    "Ð¹": 9616,
    "Ġà´": 9617,
    "Ġsid": 9618,
    "itius": 9619,
    "iniae": 9620,
    "Ġpudic": 9621,
    "atrix": 9622,
    "onc": 9623,
    "Ġnil": 9624,
    "Ġtav": 9625,
    "Ġtri": 9626,
    "Ġfo": 9627,
    "arae": 9628,
    "idisse": 9629,
    "Ġnong": 9630,
    "unum": 9631,
    "Ġlog": 9632,
    "abilius": 9633,
    "Ġesur": 9634,
    "erea": 9635,
    "otr": 9636,
    "Ġsug": 9637,
    "Ġconfect": 9638,
    "ĠAaron": 9639,
    "ĠIan": 9640,
    "ĠSe": 9641,
    "ĠSm": 9642,
    "ĠCle": 9643,
    "ĠCupid": 9644,
    "ĠDo": 9645,
    "ĠDu": 9646,
    "Ġ113": 9647,
    "ector": 9648,
    "Ġsiquidem": 9649,
    "Ġhabentem": 9650,
    "undae": 9651,
    "ĠMosc": 9652,
    "Ġabl": 9653,
    "Ġuobis": 9654,
    "Ġoperum": 9655,
    "ĠHac": 9656,
    "ĠFor": 9657,
    "Ġparatum": 9658,
    "iscons": 9659,
    "Ġvoles": 9660,
    "ĠTam": 9661,
    "Ġsolem": 9662,
    "Ġessendi": 9663,
    "Ġpropin": 9664,
    "ĠBur": 9665,
    "ĠBeth": 9666,
    "Ġcommin": 9667,
    "ovie": 9668,
    "Ġsumatur": 9669,
    "iger": 9670,
    "eratio": 9671,
    "Ġrescrib": 9672,
    "episti": 9673,
    "ĠEtsi": 9674,
    "Ġdixeris": 9675,
    "Ġdixissent": 9676,
    "Ġminoris": 9677,
    "Ġvenisse": 9678,
    "Ġveniens": 9679,
    "ĠOtt": 9680,
    "Ġsubm": 9681,
    "ifica": 9682,
    "Ġobst": 9683,
    "Ġoboed": 9684,
    "Ġdomui": 9685,
    "Ġimput": 9686,
    "adi": 9687,
    "Ġagris": 9688,
    "Ġpraesentes": 9689,
    "Ġpraescrib": 9690,
    "Ġtristis": 9691,
    "Ġiudico": 9692,
    "Ġcivilis": 9693,
    "Ġdivulg": 9694,
    "Ġdiscessit": 9695,
    "Ġreplet": 9696,
    "Ġpueris": 9697,
    "rimi": 9698,
    "Ġconcili": 9699,
    "ircum": 9700,
    "Ġvivo": 9701,
    "Ġvivet": 9702,
    "Ġinflam": 9703,
    "Ġfidelium": 9704,
    "ĠAmen": 9705,
    "Ġmorbo": 9706,
    "Ġhuiuscemodi": 9707,
    "Ġproverb": 9708,
    "Ġexclam": 9709,
    "Ġmoleste": 9710,
    "Ġprobitatis": 9711,
    "Ġcirculi": 9712,
    "Ġinvenio": 9713,
    "ĠLatini": 9714,
    "eremur": 9715,
    "Ġfrui": 9716,
    "Ġcontrah": 9717,
    "Ġ74": 9718,
    "Ġnesciebam": 9719,
    "Ġ64": 9720,
    "Ġducta": 9721,
    "liqua": 9722,
    "ansiae": 9723,
    "Ġextrinsecus": 9724,
    "Ġtestific": 9725,
    "olium": 9726,
    "Ġsatisf": 9727,
    "ĠJacob": 9728,
    "Ġappellat": 9729,
    "Ġappellamus": 9730,
    "Ð¸Ð½": 9731,
    "Ð¸Ð»": 9732,
    "Ġpatronus": 9733,
    "Ġwill": 9734,
    "Ġ97": 9735,
    "Ġlaudes": 9736,
    "ĠAdd": 9737,
    "Ġprovinciarum": 9738,
    "Ġ170": 9739,
    "Ġfacienda": 9740,
    "Ġmuliere": 9741,
    "Ġspecial": 9742,
    "Ġaedificationem": 9743,
    "Ġaedificavi": 9744,
    "ĠGermanici": 9745,
    "Ġsinguli": 9746,
    "Ġantiquorum": 9747,
    "Ġconduc": 9748,
    "Ġquick": 9749,
    "Ġconsule": 9750,
    "Ġgravida": 9751,
    "Ġaudieris": 9752,
    "Ġtertiam": 9753,
    "ĠAntonium": 9754,
    "Ġcogitationem": 9755,
    "Ġgaudere": 9756,
    "Ġdepend": 9757,
    "Ġdictu": 9758,
    "Ġrecipiat": 9759,
    "Ġdelectari": 9760,
    "Ġeffig": 9761,
    "Ġnuntium": 9762,
    "Ġculpam": 9763,
    "ĠMagister": 9764,
    "Ġ1990": 9765,
    "Ġnarrare": 9766,
    "Exo": 9767,
    "Ġiucunda": 9768,
    "Ġdivisionem": 9769,
    "Ġadflic": 9770,
    "Ġquarta": 9771,
    "Ġtutela": 9772,
    "Ġarca": 9773,
    "Ġargument": 9774,
    "Ġangelum": 9775,
    "Ġdesiderium": 9776,
    "htt": 9777,
    "Ġconsolationem": 9778,
    "Ġotio": 9779,
    "Ġsepulch": 9780,
    "Î¹Îº": 9781,
    "ĠLevi": 9782,
    "Ġsacerdotes": 9783,
    "Ġsumptus": 9784,
    "Ġintegr": 9785,
    "Ġintegrum": 9786,
    "Ġoccultum": 9787,
    "Ġagnoscere": 9788,
    "Ġubicumque": 9789,
    "Ġiubet": 9790,
    "Ġproprietas": 9791,
    "Ġfeugiat": 9792,
    "ĠCiceronis": 9793,
    "ĠDucatus": 9794,
    "Ġintuens": 9795,
    "Ġconsummationem": 9796,
    "Ġdilex": 9797,
    "Ġfluvius": 9798,
    "ĠPapa": 9799,
    "ÙĪØ": 9800,
    "Ġsterilis": 9801,
    "Ġpulcherrima": 9802,
    "Ġcandid": 9803,
    "Ġquinquaginta": 9804,
    "ĠEboraci": 9805,
    "Ġtoler": 9806,
    "quebatur": 9807,
    "Luke": 9808,
    "Lingua": 9809,
    "ĠAdminister": 9810,
    "Ġgeomet": 9811,
    "ĠNorveg": 9812,
    "Ġxxx": 9813,
    "Ġnisl": 9814,
    "ĠAxonae": 9815,
    "81": 9816,
    "Comp": 9817,
    "ED": 9818,
    "Mirum": 9819,
    "Ps": 9820,
    "Plac": 9821,
    "Vest": 9822,
    "cd": 9823,
    "get": 9824,
    "jpg": 9825,
    "lr": 9826,
    "mium": 9827,
    "not": 9828,
    "runt": 9829,
    "shopify": 9830,
    "ts": 9831,
    "tur": 9832,
    "uel": 9833,
    "wn": 9834,
    "Ã½": 9835,
    "å±": 9836,
    "å¹": 9837,
    "åĲ": 9838,
    "quoniam": 9839,
    "Ġais": 9840,
    "Ġauri": 9841,
    "Ġquatuor": 9842,
    "Ġpi": 9843,
    "atui": 9844,
    "amento": 9845,
    "Ġdanda": 9846,
    "emet": 9847,
    "Ġinept": 9848,
    "ictor": 9849,
    "Ġtt": 9850,
    "Ġtog": 9851,
    "Ġfini": 9852,
    "uls": 9853,
    "iab": 9854,
    "uns": 9855,
    "unus": 9856,
    "Ġadfer": 9857,
    "Ġrequiesc": 9858,
    "elph": 9859,
    "iloqu": 9860,
    "Ġdelib": 9861,
    "Ġdeven": 9862,
    "ĠEg": 9863,
    "ĠIX": 9864,
    "ĠSina": 9865,
    "ago": 9866,
    "ĠCro": 9867,
    "ĠDam": 9868,
    "Ġdicto": 9869,
    "endorum": 9870,
    "Quomodo": 9871,
    "Ġ110": 9872,
    "Ġfacin": 9873,
    "Ġprael": 9874,
    "Ġpraedam": 9875,
    "Ġbac": 9876,
    "ĠPub": 9877,
    "ĠPyrr": 9878,
    "Ġcoop": 9879,
    "Ġcoeg": 9880,
    "ĠQuantum": 9881,
    "ĠNas": 9882,
    "ĠNunquam": 9883,
    "egoria": 9884,
    "eburg": 9885,
    "Ġueritas": 9886,
    "Ġrutrum": 9887,
    "ĠLu": 9888,
    "ĠLiv": 9889,
    "ĠLaud": 9890,
    "ĠLex": 9891,
    "ĠLXX": 9892,
    "ĠHor": 9893,
    "Ġamantur": 9894,
    "Ġamph": 9895,
    "ultor": 9896,
    "ĠRed": 9897,
    "Ġatqui": 9898,
    "Ġparvis": 9899,
    "Ġvolat": 9900,
    "ĠTerr": 9901,
    "ustum": 9902,
    "ĠGr": 9903,
    "ĠGreg": 9904,
    "Ġorg": 9905,
    "Ġorare": 9906,
    "Ġoratore": 9907,
    "Ġsecur": 9908,
    "erii": 9909,
    "Ġstomach": 9910,
    "riet": 9911,
    "Ġcreatum": 9912,
    "veniet": 9913,
    "Ġpostr": 9914,
    "Ġimpot": 9915,
    "Ġimpend": 9916,
    "Ġagens": 9917,
    "ĠvitÃ¦": 9918,
    "Ġtabulq": 9919,
    "Ġtabulw": 9920,
    "Ġtabulz": 9921,
    "Ġtabulator": 9922,
    "Ġsuperior": 9923,
    "Ġapprehend": 9924,
    "ogis": 9925,
    "Ġ1813": 9926,
    "Ġaspectu": 9927,
    "Ġrecess": 9928,
    "Ġcorporum": 9929,
    "Ġconform": 9930,
    "Ġpublici": 9931,
    "Ġpublicis": 9932,
    "Ġnotam": 9933,
    "Ġclav": 9934,
    "heum": 9935,
    "Ġlinguarum": 9936,
    "Ġexcit": 9937,
    "Ġinvenerit": 9938,
    "Ġreditus": 9939,
    "1082": 9940,
    "Ġimperfect": 9941,
    "Ġgravi": 9942,
    "Ġintellegam": 9943,
    "Ġ84": 9944,
    "Ġexercitatione": 9945,
    "Ġvicesimo": 9946,
    "Ġtabh": 9947,
    "Ġtabj": 9948,
    "Ġtabull": 9949,
    "Ġtabup": 9950,
    "Ġtablu": 9951,
    "Ġhumanum": 9952,
    "Ġcognoscimus": 9953,
    "Ġmedicam": 9954,
    "Ġindulg": 9955,
    "Ġreliquisti": 9956,
    "Ġstudiosus": 9957,
    "1450": 9958,
    "Ġconiectura": 9959,
    "Ġoporteat": 9960,
    "Ġsacrae": 9961,
    "Ġaquil": 9962,
    "ĠBruto": 9963,
    "Ġapertum": 9964,
    "Ġaperire": 9965,
    "Ġaperti": 9966,
    "Ġliberam": 9967,
    "Ġliberius": 9968,
    "Ġsocium": 9969,
    "Ġoperae": 9970,
    "ĠUnionis": 9971,
    "ĠGermani": 9972,
    "Ġmoveat": 9973,
    "angel": 9974,
    "Ġfluct": 9975,
    "Ġanimalibus": 9976,
    "Ġperfectus": 9977,
    "Ġevident": 9978,
    "Ġaudiebamus": 9979,
    "Ġfamiliam": 9980,
    "Ġfamiliaris": 9981,
    "Ġsecundus": 9982,
    "Ġbibam": 9983,
    "Ġpraestat": 9984,
    "Ġhumanitatem": 9985,
    "Ġdicturum": 9986,
    "Ġattul": 9987,
    "Ð¾Ð³": 9988,
    "Ġuidet": 9989,
    "Ġdescendit": 9990,
    "ĠStud": 9991,
    "racch": 9992,
    "Ġaccepisset": 9993,
    "Ġeffectu": 9994,
    "Ġperdidit": 9995,
    "Ġludus": 9996,
    "3216": 9997,
    "Ġfortunam": 9998,
    "Ġconiuncti": 9999,
    "Ġhereditatis": 10000,
    "Ġsorores": 10001,
    "Ġaffectu": 10002,
    "Ġcircums": 10003,
    "ĠMosi": 10004,
    "Ġdispon": 10005,
    "Ġquaesivi": 10006,
    "Ġ1972": 10007,
    "Ġscelerat": 10008,
    "Ġsceleris": 10009,
    "Ġfundus": 10010,
    "Ġplenam": 10011,
    "Ġiniuriae": 10012,
    "Ġtaub": 10013,
    "Ġadventu": 10014,
    "Ġmusica": 10015,
    "Ġangelorum": 10016,
    "ĠDolorem": 10017,
    "Ġbeneficia": 10018,
    "ĠMoab": 10019,
    "Ġorbe": 10020,
    "Ġapostolus": 10021,
    "Ġsilv": 10022,
    "Ġvocabulo": 10023,
    "Ð¸Ð¼": 10024,
    "Ġ1866": 10025,
    "Ġuirtus": 10026,
    "Ġmembrum": 10027,
    "Ġgladium": 10028,
    "Ġmisericordiae": 10029,
    "Ġuitam": 10030,
    "Ġmeritum": 10031,
    "Ġtabuk": 10032,
    "Ġtabual": 10033,
    "ĠVelit": 10034,
    "ĠPythag": 10035,
    "ĠMichae": 10036,
    "Ġconsiliis": 10037,
    "Ã®s": 10038,
    "Ġpollicitus": 10039,
    "Ġplebe": 10040,
    "Ġâľ": 10041,
    "ĠMelius": 10042,
    "Ġnefas": 10043,
    "Ġsenectutem": 10044,
    "Ġinhabit": 10045,
    "Ġvanitas": 10046,
    "Sicut": 10047,
    "ĠCrassus": 10048,
    "ĠDumiatis": 10049,
    "Ġfluvium": 10050,
    "ĠPlatonis": 10051,
    "Ġprimogenitum": 10052,
    "ĠEzechiae": 10053,
    "Ġquidditas": 10054,
    "Ġcohort": 10055,
    "Ġcomplectitur": 10056,
    "Illud": 10057,
    "ĠMercur": 10058,
    "Ġtyrann": 10059,
    "Ergo": 10060,
    "Ġiulianus": 10061,
    "ĠBavariae": 10062,
    "ĠIsaac": 10063,
    "Ġmehercule": 10064,
    "ĠHierosol": 10065,
    "cdn": 10066,
    "**": 10067,
    "66": 10068,
    "</": 10069,
    "?{": 10070,
    "AS": 10071,
    "Autem": 10072,
    "Ep": 10073,
    "His": 10074,
    "Ist": 10075,
    "Le": 10076,
    "Verum": 10077,
    "af": 10078,
    "cui": 10079,
    "doc": 10080,
    "eos": 10081,
    "eantur": 10082,
    "ham": 10083,
    "iel": 10084,
    "king": 10085,
    "lae": 10086,
    "mam": 10087,
    "mihi": 10088,
    "menta": 10089,
    "ruit": 10090,
    "tionem": 10091,
    "uerim": 10092,
    "wa": 10093,
    "Ä±": 10094,
    "ÄĽ": 10095,
    "ÙĬ": 10096,
    "à·": 10097,
    "Ġsob": 10098,
    "Ġsess": 10099,
    "ition": 10100,
    "Ġquom": 10101,
    "Ġquing": 10102,
    "ongo": 10103,
    "Ġnacti": 10104,
    "Ġnempe": 10105,
    "Ġdatus": 10106,
    "Ġdantur": 10107,
    "Ġmel": 10108,
    "Ġmoli": 10109,
    "Ġinstant": 10110,
    "Ġtq": 10111,
    "Ġts": 10112,
    "Ġtrec": 10113,
    "Ġtba": 10114,
    "rest": 10115,
    "Ġferi": 10116,
    "eno": 10117,
    "esop": 10118,
    "etem": 10119,
    "anes": 10120,
    "aniam": 10121,
    "osy": 10122,
    "entina": 10123,
    "olam": 10124,
    "unam": 10125,
    "Ġadrog": 10126,
    "Ġrequi": 10127,
    "Ġlongo": 10128,
    "acia": 10129,
    "Ġutcumque": 10130,
    "ilus": 10131,
    "otis": 10132,
    "ĠEarum": 10133,
    "ĠAlia": 10134,
    "ĠIus": 10135,
    "ĠSaec": 10136,
    "ĠDors": 10137,
    "ĠDolia": 10138,
    "estim": 10139,
    "taor": 10140,
    "iph": 10141,
    "ippe": 10142,
    "Ġpervers": 10143,
    "Ġillarum": 10144,
    "Ġbu": 10145,
    "obrem": 10146,
    "ĠPed": 10147,
    "Ġgabulator": 10148,
    "Ġcoinqu": 10149,
    "Ġcoopt": 10150,
    "Ġcoaeter": 10151,
    "ĠQuasi": 10152,
    "Ġhabitu": 10153,
    "ivamus": 10154,
    "gnosc": 10155,
    "ebatis": 10156,
    "ĠMinister": 10157,
    "Ġsepe": 10158,
    "ptum": 10159,
    "Ġvideret": 10160,
    "Ġrabulator": 10161,
    "Ġidea": 10162,
    "ĠHad": 10163,
    "ĠHomo": 10164,
    "Ġamisit": 10165,
    "ĠFl": 10166,
    "Ġatbulator": 10167,
    "Ġincircum": 10168,
    "Ġaliquas": 10169,
    "Ġpluv": 10170,
    "Ġunic": 10171,
    "Ġfuerant": 10172,
    "Ġoriuntur": 10173,
    "Ġreserv": 10174,
    "episse": 10175,
[...]
